
#ifdef __has_attribute
#define HAVE_ATTRIBUTE(x) __has_attribute(x)
#else
#define HAVE_ATTRIBUTE(x) 0
#endif
#if HAVE_ATTRIBUTE(aligned) || (defined(__GNUC__) && !defined(__clang__))
#define DATA_ALIGN_ATTRIBUTE __attribute__((aligned(4)))
#else
#define DATA_ALIGN_ATTRIBUTE
#endif

const unsigned char model_data[] DATA_ALIGN_ATTRIBUTE = {0x1c, 0x00, 0x00, 0x00, 0x54, 0x46, 0x4c, 0x33, 0x14, 0x00, 0x20, 0x00, 0x04, 0x00, 0x08, 0x00, 0x0c, 0x00, 0x10, 0x00, 0x14, 0x00, 0x00, 0x00, 0x18, 0x00, 0x1c, 0x00, 0x14, 0x00, 0x00, 0x00, 0x03, 0x00, 0x00, 0x00, 0x18, 0x00, 0x00, 0x00, 0x20, 0x00, 0x00, 0x00, 0xb0, 0x00, 0x00, 0x00, 0x20, 0x00, 0x00, 0x00, 0x58, 0x00, 0x00, 0x00, 0x50, 0x00, 0x00, 0x00, 0x02, 0x00, 0x00, 0x00, 0x8c, 0x03, 0x00, 0x00, 0x70, 0x01, 0x00, 0x00, 0x01, 0x00, 0x00, 0x00, 0xb4, 0x00, 0x00, 0x00, 0x0d, 0x00, 0x00, 0x00, 0xe4, 0x1d, 0x00, 0x00, 0xe0, 0x1d, 0x00, 0x00, 0x8c, 0x1c, 0x00, 0x00, 0xe8, 0x1b, 0x00, 0x00, 0x74, 0x1b, 0x00, 0x00, 0x24, 0x0b, 0x00, 0x00, 0xd0, 0x04, 0x00, 0x00, 0xec, 0x03, 0x00, 0x00, 0xc4, 0x1d, 0x00, 0x00, 0xc0, 0x1d, 0x00, 0x00, 0xbc, 0x1d, 0x00, 0x00, 0xb8, 0x1d, 0x00, 0x00, 0x3c, 0x00, 0x00, 0x00, 0x00, 0x00, 0x00, 0x00, 0x01, 0x00, 0x00, 0x00, 0x0c, 0x00, 0x00, 0x00, 0x08, 0x00, 0x0c, 0x00, 0x04, 0x00, 0x08, 0x00, 0x08, 0x00, 0x00, 0x00, 0x08, 0x00, 0x00, 0x00, 0x0c, 0x00, 0x00, 0x00, 0x13, 0x00, 0x00, 0x00, 0x6d, 0x69, 0x6e, 0x5f, 0x72, 0x75, 0x6e, 0x74, 0x69, 0x6d, 0x65, 0x5f, 0x76, 0x65, 0x72, 0x73, 0x69, 0x6f, 0x6e, 0x00, 0xde, 0xe3, 0xff, 0xff, 0x04, 0x00, 0x00, 0x00, 0x10, 0x00, 0x00, 0x00, 0x31, 0x2e, 0x35, 0x2e, 0x30, 0x00, 0x00, 0x00, 0x00, 0x00, 0x00, 0x00, 0x00, 0x00, 0x00, 0x00, 0x0f, 0x00, 0x00, 0x00, 0x4d, 0x4c, 0x49, 0x52, 0x20, 0x43, 0x6f, 0x6e, 0x76, 0x65, 0x72, 0x74, 0x65, 0x64, 0x2e, 0x00, 0x00, 0x00, 0x0e, 0x00, 0x18, 0x00, 0x04, 0x00, 0x08, 0x00, 0x0c, 0x00, 0x10, 0x00, 0x14, 0x00, 0x0e, 0x00, 0x00, 0x00, 0x14, 0x00, 0x00, 0x00, 0x40, 0x00, 0x00, 0x00, 0x44, 0x00, 0x00, 0x00, 0x48, 0x00, 0x00, 0x00, 0x58, 0x00, 0x00, 0x00, 0x0b, 0x00, 0x00, 0x00, 0xd4, 0x1c, 0x00, 0x00, 0x64, 0x1c, 0x00, 0x00, 0x60, 0x1b, 0x00, 0x00, 0xc8, 0x1a, 0x00, 0x00, 0x6c, 0x1a, 0x00, 0x00, 0x18, 0x0a, 0x00, 0x00, 0xc4, 0x03, 0x00, 0x00, 0xa4, 0x02, 0x00, 0x00, 0xb0, 0x01, 0x00, 0x00, 0xf8, 0x00, 0x00, 0x00, 0x80, 0x00, 0x00, 0x00, 0x01, 0x00, 0x00, 0x00, 0x00, 0x00, 0x00, 0x00, 0x01, 0x00, 0x00, 0x00, 0x0a, 0x00, 0x00, 0x00, 0x04, 0x00, 0x00, 0x00, 0x28, 0x02, 0x00, 0x00, 0x58, 0x01, 0x00, 0x00, 0xa4, 0x00, 0x00, 0x00, 0x1c, 0x00, 0x00, 0x00, 0x04, 0x00, 0x00, 0x00, 0x6d, 0x61, 0x69, 0x6e, 0x00, 0x00, 0x0e, 0x00, 0x18, 0x00, 0x08, 0x00, 0x0c, 0x00, 0x10, 0x00, 0x07, 0x00, 0x14, 0x00, 0x0e, 0x00, 0x00, 0x00, 0x00, 0x00, 0x00, 0x09, 0x01, 0x00, 0x00, 0x00, 0x1c, 0x00, 0x00, 0x00, 0x10, 0x00, 0x00, 0x00, 0x04, 0x00, 0x00, 0x00, 0xba, 0xe4, 0xff, 0xff, 0x00, 0x00, 0x80, 0x3f, 0x01, 0x00, 0x00, 0x00, 0x0a, 0x00, 0x00, 0x00, 0x01, 0x00, 0x00, 0x00, 0x09, 0x00, 0x00, 0x00, 0xf4, 0xfd, 0xff, 0xff, 0x19, 0x00, 0x00, 0x00, 0x00, 0x00, 0x00, 0x19, 0x01, 0x00, 0x00, 0x00, 0xe8, 0xe3, 0xff, 0xff, 0x14, 0x00, 0x00, 0x00, 0x0b, 0x00, 0x00, 0x00, 0x24, 0x00, 0x00, 0x00, 0x30, 0x00, 0x00, 0x00, 0x10, 0x00, 0x00, 0x00, 0x02, 0x00, 0x00, 0x00, 0x01, 0x00, 0x00, 0x00, 0x03, 0x00, 0x00, 0x00, 0x02, 0x00, 0x00, 0x00, 0xff, 0xff, 0xff, 0xff, 0x03, 0x00, 0x00, 0x00, 0x08, 0x00, 0x00, 0x00, 0x49, 0x64, 0x65, 0x6e, 0x74, 0x69, 0x74, 0x79, 0x00, 0x00, 0x00, 0x00, 0xd0, 0xe3, 0xff, 0xff, 0x5e, 0xff, 0xff, 0xff, 0x00, 0x00, 0x00, 0x08, 0x18, 0x00, 0x00, 0x00, 0x0c, 0x00, 0x00, 0x00, 0x04, 0x00, 0x00, 0x00, 0xe8, 0xe3, 0xff, 0xff, 0x01, 0x00, 0x00, 0x00, 0x09, 0x00, 0x00, 0x00, 0x03, 0x00, 0x00, 0x00, 0x08, 0x00, 0x00, 0x00, 0x06, 0x00, 0x00, 0x00, 0x03, 0x00, 0x00, 0x00, 0x5c, 0xe4, 0xff, 0xff, 0x14, 0x00, 0x00, 0x00, 0x0a, 0x00, 0x00, 0x00, 0x24, 0x00, 0x00, 0x00, 0x5c, 0x00, 0x00, 0x00, 0x10, 0x00, 0x00, 0x00, 0x02, 0x00, 0x00, 0x00, 0x01, 0x00, 0x00, 0x00, 0x03, 0x00, 0x00, 0x00, 0x02, 0x00, 0x00, 0x00, 0xff, 0xff, 0xff, 0xff, 0x03, 0x00, 0x00, 0x00, 0x34, 0x00, 0x00, 0x00, 0x73, 0x65, 0x71, 0x75, 0x65, 0x6e, 0x74, 0x69, 0x61, 0x6c, 0x2f, 0x64, 0x65, 0x6e, 0x73, 0x65, 0x5f, 0x32, 0x2f, 0x4d, 0x61, 0x74, 0x4d, 0x75, 0x6c, 0x3b, 0x73, 0x65, 0x71, 0x75, 0x65, 0x6e, 0x74, 0x69, 0x61, 0x6c, 0x2f, 0x64, 0x65, 0x6e, 0x73, 0x65, 0x5f, 0x32, 0x2f, 0x42, 0x69, 0x61, 0x73, 0x41, 0x64, 0x64, 0x00, 0x00, 0x00, 0x00, 0xcc, 0xe5, 0xff, 0xff, 0x00, 0x00, 0x0e, 0x00, 0x14, 0x00, 0x00, 0x00, 0x08, 0x00, 0x0c, 0x00, 0x07, 0x00, 0x10, 0x00, 0x0e, 0x00, 0x00, 0x00, 0x00, 0x00, 0x00, 0x08, 0x1c, 0x00, 0x00, 0x00, 0x10, 0x00, 0x00, 0x00, 0x04, 0x00, 0x00, 0x00, 0x32, 0xff, 0xff, 0xff, 0x00, 0x00, 0x00, 0x01, 0x01, 0x00, 0x00, 0x00, 0x08, 0x00, 0x00, 0x00, 0x03, 0x00, 0x00, 0x00, 0x07, 0x00, 0x00, 0x00, 0x05, 0x00, 0x00, 0x00, 0x02, 0x00, 0x00, 0x00, 0x10, 0xe5, 0xff, 0xff, 0x14, 0x00, 0x00, 0x00, 0x09, 0x00, 0x00, 0x00, 0x24, 0x00, 0x00, 0x00, 0x74, 0x00, 0x00, 0x00, 0x10, 0x00, 0x00, 0x00, 0x02, 0x00, 0x00, 0x00, 0x01, 0x00, 0x00, 0x00, 0x0c, 0x00, 0x00, 0x00, 0x02, 0x00, 0x00, 0x00, 0xff, 0xff, 0xff, 0xff, 0x0c, 0x00, 0x00, 0x00, 0x4c, 0x00, 0x00, 0x00, 0x73, 0x65, 0x71, 0x75, 0x65, 0x6e, 0x74, 0x69, 0x61, 0x6c, 0x2f, 0x64, 0x65, 0x6e, 0x73, 0x65, 0x5f, 0x31, 0x2f, 0x4d, 0x61, 0x74, 0x4d, 0x75, 0x6c, 0x3b, 0x73, 0x65, 0x71, 0x75, 0x65, 0x6e, 0x74, 0x69, 0x61, 0x6c, 0x2f, 0x64, 0x65, 0x6e, 0x73, 0x65, 0x5f, 0x31, 0x2f, 0x42, 0x69, 0x61, 0x73, 0x41, 0x64, 0x64, 0x3b, 0x73, 0x65, 0x71, 0x75, 0x65, 0x6e, 0x74, 0x69, 0x61, 0x6c, 0x2f, 0x64, 0x65, 0x6e, 0x73, 0x65, 0x5f, 0x31, 0x2f, 0x52, 0x65, 0x6c, 0x75, 0x00, 0x00, 0x00, 0x00, 0x98, 0xe6, 0xff, 0xff, 0x00, 0x00, 0x0e, 0x00, 0x16, 0x00, 0x00, 0x00, 0x08, 0x00, 0x0c, 0x00, 0x07, 0x00, 0x10, 0x00, 0x0e, 0x00, 0x00, 0x00, 0x00, 0x00, 0x00, 0x08, 0x24, 0x00, 0x00, 0x00, 0x18, 0x00, 0x00, 0x00, 0x0c, 0x00, 0x00, 0x00, 0x00, 0x00, 0x06, 0x00, 0x08, 0x00, 0x07, 0x00, 0x06, 0x00, 0x00, 0x00, 0x00, 0x00, 0x00, 0x01, 0x01, 0x00, 0x00, 0x00, 0x07, 0x00, 0x00, 0x00, 0x03, 0x00, 0x00, 0x00, 0x00, 0x00, 0x00, 0x00, 0x04, 0x00, 0x00, 0x00, 0x01, 0x00, 0x00, 0x00, 0x0c, 0x00, 0x10, 0x00, 0x0b, 0x00, 0x00, 0x00, 0x0c, 0x00, 0x04, 0x00, 0x0c, 0x00, 0x00, 0x00, 0x09, 0x00, 0x00, 0x00, 0x00, 0x00, 0x00, 0x09, 0x01, 0x00, 0x00, 0x00, 0x00, 0xe6, 0xff, 0xff, 0x14, 0x00, 0x00, 0x00, 0x08, 0x00, 0x00, 0x00, 0x24, 0x00, 0x00, 0x00, 0x6c, 0x00, 0x00, 0x00, 0x10, 0x00, 0x00, 0x00, 0x02, 0x00, 0x00, 0x00, 0x01, 0x00, 0x00, 0x00, 0x20, 0x00, 0x00, 0x00, 0x02, 0x00, 0x00, 0x00, 0xff, 0xff, 0xff, 0xff, 0x20, 0x00, 0x00, 0x00, 0x46, 0x00, 0x00, 0x00, 0x73, 0x65, 0x71, 0x75, 0x65, 0x6e, 0x74, 0x69, 0x61, 0x6c, 0x2f, 0x64, 0x65, 0x6e, 0x73, 0x65, 0x2f, 0x4d, 0x61, 0x74, 0x4d, 0x75, 0x6c, 0x3b, 0x73, 0x65, 0x71, 0x75, 0x65, 0x6e, 0x74, 0x69, 0x61, 0x6c, 0x2f, 0x64, 0x65, 0x6e, 0x73, 0x65, 0x2f, 0x42, 0x69, 0x61, 0x73, 0x41, 0x64, 0x64, 0x3b, 0x73, 0x65, 0x71, 0x75, 0x65, 0x6e, 0x74, 0x69, 0x61, 0x6c, 0x2f, 0x64, 0x65, 0x6e, 0x73, 0x65, 0x2f, 0x52, 0x65, 0x6c, 0x75, 0x00, 0x00, 0x24, 0xe6, 0xff, 0xff, 0x7a, 0xe7, 0xff, 0xff, 0x04, 0x00, 0x00, 0x00, 0x90, 0x00, 0x00, 0x00, 0xe3, 0x17, 0x03, 0x3e, 0xa6, 0xc2, 0xd3, 0xbd, 0x21, 0x7d, 0xd0, 0xbe, 0xbf, 0x49, 0xb9, 0xbc, 0x37, 0xdd, 0xa4, 0x3e, 0x0d, 0xab, 0x25, 0x3e, 0x71, 0x5f, 0x33, 0xbe, 0x8b, 0x79, 0xab, 0xbe, 0x91, 0xad, 0x58, 0x3e, 0x80, 0x1f, 0x9f, 0xbe, 0xf4, 0x0e, 0x00, 0xbe, 0xba, 0x44, 0x0d, 0x3f, 0x88, 0xff, 0x94, 0xbd, 0xea, 0x3f, 0xc9, 0xbe, 0xf0, 0xa1, 0x5d, 0xbf, 0xad, 0x2e, 0x85, 0x3b, 0x3a, 0x6a, 0x99, 0xbe, 0xce, 0xe1, 0x90, 0x3e, 0x2c, 0x38, 0x02, 0x3e, 0x92, 0x8c, 0x74, 0x3e, 0xe0, 0x73, 0xad, 0x3e, 0x19, 0xe3, 0x23, 0xbf, 0xaa, 0x20, 0xfa, 0xbe, 0x8b, 0xb2, 0x2d, 0x3e, 0x19, 0x31, 0xb2, 0xbe, 0x89, 0x65, 0x41, 0xbd, 0x5f, 0x31, 0xba, 0xbe, 0x0b, 0x83, 0xa8, 0xbe, 0xd4, 0x11, 0xe6, 0x3e, 0x82, 0xab, 0xf6, 0x3e, 0x1c, 0x2b, 0x65, 0x3e, 0x0f, 0x01, 0x99, 0xbe, 0x2b, 0x08, 0x9a, 0x3e, 0x82, 0x52, 0x8c, 0xbe, 0x82, 0x0d, 0xb6, 0xbd, 0xbb, 0x27, 0x18, 0x3f, 0x82, 0xe7, 0xff, 0xff, 0x10, 0x00, 0x00, 0x00, 0x07, 0x00, 0x00, 0x00, 0x14, 0x00, 0x00, 0x00, 0x30, 0x00, 0x00, 0x00, 0x02, 0x00, 0x00, 0x00, 0x03, 0x00, 0x00, 0x00, 0x0c, 0x00, 0x00, 0x00, 0x19, 0x00, 0x00, 0x00, 0x73, 0x65, 0x71, 0x75, 0x65, 0x6e, 0x74, 0x69, 0x61, 0x6c, 0x2f, 0x64, 0x65, 0x6e, 0x73, 0x65, 0x5f, 0x32, 0x2f, 0x4d, 0x61, 0x74, 0x4d, 0x75, 0x6c, 0x00, 0x00, 0x00, 0x04, 0xe7, 0xff, 0xff, 0x5a, 0xe8, 0xff, 0xff, 0x04, 0x00, 0x00, 0x00, 0x00, 0x06, 0x00, 0x00, 0xc0, 0xf7, 0x22, 0xbd, 0x48, 0x81, 0x98, 0xbe, 0x4d, 0x2c, 0x9a, 0x3e, 0xec, 0x85, 0xc3, 0xbd, 0xdb, 0x7d, 0xd2, 0xbd, 0xb6, 0x58, 0xc2, 0xbe, 0xa3, 0x33, 0x80, 0xbd, 0x70, 0x4a, 0x07, 0x3e, 0x83, 0xfc, 0x85, 0x3e, 0x57, 0x89, 0x4e, 0x3e, 0x00, 0xec, 0x77, 0xbe, 0xce, 0x38, 0x50, 0xbe, 0x68, 0xae, 0x27, 0xbd, 0x05, 0x6b, 0x61, 0xbe, 0x73, 0x1c, 0x87, 0xbe, 0xa9, 0xfb, 0xe7, 0xbd, 0x15, 0xdd, 0x49, 0xbb, 0xd5, 0x04, 0x6a, 0xbe, 0x8f, 0xac, 0x5c, 0xbd, 0x5f, 0xf8, 0xb7, 0x3d, 0xf4, 0xbb, 0xc6, 0xbe, 0xa8, 0x50, 0x97, 0xba, 0xbc, 0xfd, 0x85, 0xbe, 0xa6, 0x1e, 0x6b, 0x3e, 0x45, 0x93, 0xa4, 0xbe, 0xbd, 0xf7, 0x60, 0xbe, 0x88, 0x2f, 0x40, 0x3d, 0x4c, 0x16, 0xaa, 0xbe, 0x66, 0x52, 0x89, 0x3e, 0x6f, 0xb9, 0xb1, 0xbe, 0x96, 0x41, 0x82, 0x3d, 0xdd, 0xb3, 0xd5, 0x3d, 0x47, 0xe9, 0xde, 0x3d, 0xf3, 0xe7, 0x0a, 0xbd, 0x01, 0x65, 0xa3, 0x3d, 0x1b, 0xe0, 0x96, 0x3e, 0xe5, 0x44, 0xb5, 0x3e, 0x8c, 0x8e, 0xc9, 0x3e, 0x47, 0xe6, 0xb0, 0x3d, 0xa8, 0xfe, 0x44, 0x3e, 0x26, 0xd9, 0x1c, 0x3e, 0xf9, 0x99, 0x66, 0xbe, 0x81, 0x83, 0x2d, 0x3e, 0x20, 0x06, 0x87, 0x3e, 0xbb, 0xf7, 0x29, 0xbe, 0x76, 0x88, 0x45, 0x3e, 0x47, 0x2e, 0x71, 0x3e, 0x17, 0x01, 0xab, 0x3d, 0x2a, 0xe3, 0x6b, 0xbd, 0x64, 0xcd, 0xcc, 0x3a, 0x66, 0x5f, 0x65, 0xbe, 0x2a, 0x3d, 0x26, 0x3d, 0xff, 0xa3, 0x22, 0x3e, 0x8a, 0x32, 0xd4, 0x3c, 0x00, 0xae, 0xda, 0x3a, 0xdc, 0xf7, 0xc5, 0xbd, 0xdd, 0x34, 0x16, 0x3d, 0x23, 0xb1, 0x81, 0xbe, 0x0b, 0x75, 0x61, 0xbe, 0x2a, 0x11, 0x36, 0xbe, 0x02, 0xda, 0x1c, 0xbe, 0x57, 0x2b, 0x02, 0xbe, 0x0e, 0x0f, 0x85, 0x3e, 0xbf, 0x06, 0xbe, 0x3d, 0x8d, 0xe2, 0xcf, 0x3e, 0xe2, 0x7d, 0x68, 0x3e, 0x84, 0xd0, 0xa7, 0x3d, 0x0d, 0x0e, 0x60, 0x3e, 0x7e, 0x60, 0x41, 0xbe, 0xe2, 0xb1, 0x8c, 0x3e, 0xcb, 0x2b, 0xfa, 0x3d, 0xf1, 0x89, 0x1c, 0x3e, 0x51, 0xbc, 0x92, 0xbe, 0x30, 0x57, 0x68, 0xbe, 0x19, 0x7f, 0xa6, 0x3d, 0xaf, 0xa2, 0x74, 0x3d, 0x3d, 0x84, 0xd2, 0xbd, 0xc9, 0xde, 0xe3, 0x3e, 0xec, 0x4c, 0x83, 0xbc, 0x05, 0xd0, 0x22, 0xbc, 0xb2, 0x4e, 0xca, 0xba, 0x9d, 0xa9, 0xa1, 0x3d, 0x3d, 0xc6, 0x6b, 0x3e, 0xe6, 0x06, 0x79, 0x3e, 0xb5, 0xac, 0xdf, 0x3d, 0x5f, 0x7b, 0x34, 0xbe, 0x00, 0x5a, 0x1b, 0x3a, 0x9b, 0x3b, 0x7f, 0xbc, 0xef, 0x12, 0xcc, 0x3b, 0xe9, 0xa5, 0x39, 0x3e, 0x88, 0xde, 0x15, 0xbe, 0xb2, 0xad, 0x82, 0xbe, 0x79, 0x12, 0x21, 0xbd, 0xb2, 0x6e, 0xaa, 0xbe, 0xba, 0x24, 0xc1, 0x3d, 0xbc, 0x23, 0xf2, 0xb9, 0xfe, 0x4e, 0x51, 0xbe, 0x93, 0x14, 0x54, 0x3e, 0xfe, 0xa8, 0x72, 0x3e, 0x7a, 0xdf, 0xc3, 0xbd, 0xec, 0xb2, 0xa9, 0xbe, 0x60, 0xea, 0x9e, 0xbe, 0xb4, 0x74, 0x29, 0xbd, 0xd3, 0x67, 0x1b, 0xbe, 0x61, 0xe2, 0xa2, 0x3e, 0x5b, 0xde, 0x79, 0x3b, 0x82, 0x59, 0x12, 0x3d, 0xf2, 0xc8, 0x22, 0xbd, 0xff, 0xe9, 0x5e, 0x3d, 0x2c, 0xd5, 0x89, 0xbd, 0x65, 0xa5, 0x03, 0xbd, 0xd7, 0xad, 0xa3, 0xbe, 0xcf, 0x54, 0x19, 0xbc, 0x9a, 0x07, 0x74, 0xbe, 0xf6, 0x40, 0x12, 0x3e, 0xf8, 0xaf, 0x61, 0xbd, 0xe3, 0xa4, 0xef, 0xbd, 0xa9, 0x04, 0x89, 0xbe, 0x50, 0xb4, 0xfc, 0x3d, 0xcd, 0x4a, 0xf7, 0x3c, 0x39, 0x9f, 0xa2, 0xbe, 0xe8, 0x36, 0x03, 0x3d, 0x44, 0xd5, 0xa9, 0x3c, 0x07, 0xe7, 0x9d, 0x3c, 0x18, 0x91, 0x9f, 0x3e, 0xc1, 0xba, 0x9e, 0x3e, 0xb1, 0x3d, 0x46, 0xbd, 0x00, 0x0a, 0x69, 0x3e, 0x5e, 0xf3, 0x41, 0x3e, 0x0a, 0x93, 0x19, 0xbe, 0x17, 0x56, 0x73, 0x3e, 0xe1, 0x0e, 0xe7, 0xbc, 0x3a, 0xb8, 0xdd, 0xbd, 0x97, 0xfa, 0x46, 0x3e, 0x29, 0x8a, 0x12, 0x3e, 0xd6, 0xc6, 0x9f, 0x3d, 0x1b, 0xf2, 0x29, 0xbd, 0xfe, 0x64, 0xa3, 0xbe, 0xed, 0x67, 0x92, 0x3e, 0x91, 0x39, 0x9d, 0x3e, 0xf0, 0x30, 0x74, 0x3e, 0xd6, 0x6b, 0xca, 0xbb, 0xbc, 0x78, 0x6a, 0xbe, 0x9a, 0x8e, 0xba, 0xbe, 0xba, 0x18, 0x6f, 0xbe, 0x95, 0xda, 0x91, 0xbd, 0xf4, 0x6f, 0x17, 0xbc, 0x3b, 0x9b, 0xfa, 0x3d, 0x3b, 0xfd, 0xa3, 0x3e, 0xcc, 0xa6, 0xcb, 0xbd, 0x0e, 0x89, 0x5f, 0x3e, 0xdb, 0x8f, 0x62, 0x3e, 0x7e, 0xd5, 0x83, 0xbd, 0x3b, 0x02, 0xe2, 0xbd, 0x27, 0xde, 0x73, 0xbd, 0xac, 0x10, 0x82, 0xbe, 0x18, 0x53, 0x11, 0xbe, 0xae, 0xcc, 0x3e, 0xbe, 0xb4, 0x6b, 0x06, 0x3e, 0x92, 0x7a, 0x9e, 0x3d, 0xc9, 0x6c, 0x8c, 0x3e, 0xb8, 0x9e, 0x5f, 0xbe, 0x9f, 0x12, 0x94, 0x3e, 0xc8, 0x40, 0x13, 0x3e, 0xd8, 0x9b, 0x82, 0x3d, 0x29, 0x2e, 0x92, 0x3e, 0xc8, 0x78, 0x61, 0xbe, 0xe2, 0x8a, 0x7f, 0x3e, 0x02, 0x0e, 0x01, 0xbe, 0x5d, 0x32, 0x76, 0x3c, 0xd1, 0x95, 0x20, 0xbc, 0x28, 0x62, 0x9a, 0x3d, 0xe4, 0x76, 0x83, 0xbe, 0xe8, 0xcd, 0xc3, 0xbd, 0x33, 0x80, 0x50, 0x3e, 0x17, 0xc5, 0x4a, 0xbd, 0xd8, 0x1d, 0x37, 0xbe, 0xf7, 0x36, 0x5d, 0x3e, 0x05, 0x6e, 0x8d, 0x3e, 0xde, 0x78, 0x7d, 0xbe, 0x9a, 0xd9, 0x6d, 0x3e, 0xbb, 0x5a, 0x2a, 0x3e, 0x93, 0x75, 0x64, 0xbe, 0x74, 0x95, 0x30, 0x3e, 0xda, 0xc2, 0x3d, 0xbe, 0xa2, 0x75, 0x64, 0xbd, 0x0e, 0xc6, 0x82, 0x3d, 0xd2, 0x08, 0xce, 0xbe, 0x7a, 0x28, 0xa7, 0x3d, 0x41, 0xf7, 0x34, 0xbe, 0xa8, 0x19, 0x7f, 0x3d, 0x0d, 0xf2, 0xc2, 0xbd, 0x5c, 0x45, 0x8d, 0x3e, 0xb6, 0x24, 0xdf, 0xbc, 0x59, 0xdc, 0xb7, 0xbe, 0x8d, 0xca, 0x6b, 0xbe, 0x5a, 0x71, 0x80, 0xbe, 0x7c, 0x01, 0x2b, 0x3e, 0x4d, 0xf8, 0x6e, 0xbe, 0xf5, 0x3c, 0xab, 0xbc, 0xdb, 0xde, 0x16, 0xbd, 0x10, 0x41, 0x87, 0xbe, 0x20, 0xce, 0xa5, 0x3e, 0xcb, 0xd7, 0x9e, 0x3e, 0x9a, 0x24, 0xb9, 0xbd, 0x29, 0xa9, 0xbb, 0x3e, 0x81, 0x6f, 0x9d, 0x3e, 0xf8, 0x72, 0xd3, 0xbd, 0x69, 0x63, 0xc6, 0xbd, 0xfb, 0xd8, 0x9b, 0xbe, 0xba, 0xfa, 0x6c, 0x3e, 0xe7, 0x2e, 0x1f, 0xbe, 0x44, 0x66, 0xa6, 0xbe, 0x29, 0x17, 0xbd, 0xbd, 0xcd, 0xef, 0x07, 0xbe, 0xfa, 0x44, 0xb6, 0xbe, 0xc2, 0xdd, 0x19, 0xbc, 0xa6, 0x14, 0x00, 0xbe, 0x20, 0xc0, 0xd8, 0xbb, 0x6a, 0x7d, 0x0d, 0x3e, 0xb2, 0x40, 0x0c, 0x3e, 0x69, 0xbe, 0xca, 0xbd, 0x67, 0x41, 0x82, 0xbe, 0xd5, 0xa3, 0x5d, 0x3e, 0xe3, 0xab, 0xe2, 0x3d, 0xf7, 0x8e, 0x84, 0x3e, 0x00, 0x61, 0xba, 0xba, 0xa6, 0xa1, 0x68, 0xbe, 0xd2, 0x11, 0x2b, 0x3e, 0xa1, 0x15, 0x5a, 0xbd, 0xf3, 0x29, 0x90, 0xbe, 0xa7, 0x3e, 0x42, 0xbe, 0xa6, 0x10, 0x49, 0x3e, 0x2f, 0x90, 0x3d, 0xbb, 0x19, 0x51, 0x99, 0xbe, 0x10, 0x11, 0xae, 0x3d, 0x30, 0xec, 0xda, 0xbd, 0x0d, 0xd4, 0xfc, 0x3c, 0x06, 0x26, 0x47, 0xbe, 0x1c, 0xba, 0xc2, 0xbe, 0xb4, 0x18, 0xbc, 0xbe, 0x4a, 0x7a, 0xb3, 0x3d, 0x22, 0x5c, 0x9c, 0x3d, 0x49, 0xc1, 0x0a, 0x3e, 0xac, 0x55, 0xf3, 0x3d, 0x40, 0x5b, 0xe4, 0xbd, 0x1f, 0xc5, 0x16, 0xbe, 0xc4, 0xc7, 0x77, 0xbe, 0x47, 0x0c, 0x90, 0xbe, 0x9e, 0xef, 0x2f, 0x3e, 0x39, 0xc2, 0x43, 0x3d, 0x9c, 0x02, 0xae, 0xbe, 0x0f, 0x12, 0x8e, 0xbe, 0x70, 0x08, 0x0d, 0xbe, 0xf9, 0xc9, 0x66, 0xbd, 0x9b, 0xd5, 0xaa, 0x3e, 0x5f, 0x0a, 0x07, 0xbe, 0x7d, 0xd8, 0x95, 0xbe, 0x38, 0xfe, 0x62, 0x3d, 0xfd, 0x67, 0x82, 0x3e, 0xab, 0x51, 0xd6, 0x3c, 0xbb, 0xa1, 0x81, 0x3c, 0xc7, 0x39, 0x99, 0xbe, 0xf1, 0xed, 0x87, 0x3e, 0xcb, 0x2d, 0xab, 0x3d, 0x2e, 0x4e, 0xd5, 0xbe, 0x3f, 0x64, 0x27, 0x3e, 0x59, 0xe4, 0xb5, 0xbd, 0xe8, 0x02, 0x04, 0xbd, 0xaf, 0x19, 0x78, 0xbe, 0xd9, 0x1f, 0x95, 0xbe, 0x1f, 0xe5, 0x8f, 0xbe, 0x41, 0x73, 0x0a, 0xbd, 0x8d, 0x8b, 0x93, 0xbe, 0x95, 0x6b, 0x9d, 0x3e, 0x6e, 0xad, 0x5f, 0xbe, 0xbf, 0x5a, 0xbb, 0x3d, 0xea, 0xca, 0xc0, 0xbe, 0x19, 0x75, 0xa8, 0x3e, 0x5b, 0x83, 0xbf, 0xbe, 0xc0, 0xa7, 0x4e, 0xbe, 0x50, 0xd0, 0x3a, 0xbe, 0xd5, 0xee, 0x78, 0x3e, 0xcb, 0xab, 0x0b, 0x3e, 0xbd, 0x9d, 0x0f, 0xbe, 0xa7, 0x78, 0x09, 0xbb, 0x28, 0x3c, 0x18, 0xbe, 0xd0, 0x5f, 0xa0, 0x3d, 0xcb, 0x98, 0x3d, 0x3e, 0x43, 0x77, 0x89, 0xbe, 0x12, 0x61, 0x0c, 0x3e, 0xf2, 0xc8, 0xbc, 0xbe, 0x6f, 0x8b, 0x18, 0x3e, 0xab, 0x47, 0xd4, 0x3e, 0x23, 0xac, 0x43, 0x3e, 0x1f, 0xc4, 0x36, 0xbe, 0xf6, 0x8b, 0x45, 0x3d, 0xcf, 0x65, 0x7d, 0xbe, 0x12, 0x34, 0x8b, 0x3e, 0x85, 0x3b, 0x1b, 0x3e, 0x4c, 0x64, 0xaa, 0x3e, 0x61, 0xd0, 0x48, 0x3e, 0x3a, 0xef, 0xae, 0x3e, 0xd3, 0x78, 0x70, 0xbc, 0x36, 0x6d, 0x23, 0xbd, 0x92, 0x55, 0x5c, 0xbe, 0x31, 0xf9, 0xb8, 0x3e, 0x62, 0x56, 0x7f, 0xbe, 0xa2, 0x0f, 0xb9, 0x3e, 0xa8, 0x9b, 0x8c, 0x3e, 0xab, 0x78, 0x83, 0x3e, 0x1b, 0x76, 0x01, 0xbe, 0xea, 0xc1, 0x64, 0x3c, 0x88, 0xc0, 0x92, 0x3e, 0x95, 0x88, 0x53, 0xbd, 0x85, 0xc3, 0x7a, 0xbe, 0xd0, 0x88, 0x0f, 0xbe, 0x1e, 0xa3, 0x21, 0xbe, 0x5d, 0xdf, 0x9e, 0xbe, 0x25, 0xba, 0x9f, 0x3e, 0x81, 0x06, 0x27, 0xbe, 0x25, 0xc8, 0x6a, 0x3d, 0x26, 0xb3, 0x4c, 0x3e, 0x76, 0x32, 0x70, 0x3d, 0xd8, 0x1e, 0x6c, 0xbe, 0x5a, 0xf3, 0x61, 0xbe, 0x5e, 0xb2, 0x5a, 0x3e, 0xd6, 0xae, 0x59, 0xbd, 0x3c, 0x26, 0xaa, 0x3e, 0xef, 0x67, 0xf4, 0xbd, 0x42, 0x24, 0x93, 0x3e, 0x9b, 0xe0, 0x6f, 0x3c, 0x2b, 0x3e, 0x8f, 0x3e, 0x89, 0x43, 0x80, 0x3d, 0x63, 0xe7, 0x3c, 0xbe, 0x9d, 0x95, 0xad, 0xbe, 0x86, 0xe8, 0xec, 0x3c, 0x86, 0xa4, 0x18, 0xbd, 0xc6, 0xb4, 0xb9, 0xbd, 0xdb, 0xf6, 0xab, 0x3d, 0xe2, 0x75, 0xdd, 0xbc, 0x2b, 0xfd, 0xa4, 0x3e, 0xca, 0x5d, 0x55, 0x3e, 0xce, 0x30, 0x85, 0x3c, 0xaa, 0xa3, 0x97, 0x3c, 0xa6, 0xd9, 0x71, 0xbd, 0xc0, 0x0f, 0x2e, 0xbe, 0xb5, 0x90, 0x93, 0xbc, 0xa7, 0x84, 0x41, 0x3e, 0x56, 0x39, 0x94, 0xbe, 0xd8, 0x1e, 0x93, 0x3e, 0xcc, 0x96, 0xb1, 0xbd, 0x34, 0x57, 0x8b, 0x3e, 0x63, 0x8c, 0xc8, 0x3e, 0xe9, 0x7f, 0x96, 0x3e, 0x0c, 0x49, 0xbe, 0x3e, 0x8f, 0x86, 0x0b, 0x3c, 0x0d, 0xda, 0x4b, 0x3d, 0xef, 0x69, 0x74, 0xbd, 0xce, 0x09, 0x20, 0x3e, 0xa7, 0xcb, 0x50, 0xbe, 0x20, 0x9b, 0x33, 0xbd, 0x8d, 0x60, 0x32, 0x3e, 0x43, 0xba, 0xd5, 0x3e, 0xb5, 0x96, 0x21, 0x3e, 0x8f, 0x73, 0xa0, 0x3e, 0x63, 0x57, 0xf5, 0x3e, 0xb9, 0x19, 0x97, 0x3c, 0x45, 0x48, 0x23, 0x3d, 0xb3, 0x91, 0x0c, 0xbe, 0x95, 0x15, 0xa7, 0x3e, 0x1e, 0x70, 0x70, 0xbe, 0xc1, 0xee, 0xf3, 0x3e, 0x20, 0x61, 0x98, 0x3e, 0xf4, 0xbc, 0x90, 0xbd, 0x68, 0xfe, 0x8c, 0xbe, 0xcc, 0x7f, 0x5c, 0xbc, 0xb8, 0x61, 0x96, 0x3e, 0x98, 0x5b, 0x74, 0xbe, 0xbf, 0x68, 0x51, 0xbe, 0x73, 0xfd, 0x90, 0xbe, 0xd6, 0xb5, 0x8a, 0xbe, 0xee, 0x19, 0x4d, 0x3e, 0x02, 0x15, 0xb8, 0x3e, 0xd2, 0xed, 0xff, 0xff, 0x10, 0x00, 0x00, 0x00, 0x06, 0x00, 0x00, 0x00, 0x14, 0x00, 0x00, 0x00, 0x30, 0x00, 0x00, 0x00, 0x02, 0x00, 0x00, 0x00, 0x0c, 0x00, 0x00, 0x00, 0x20, 0x00, 0x00, 0x00, 0x19, 0x00, 0x00, 0x00, 0x73, 0x65, 0x71, 0x75, 0x65, 0x6e, 0x74, 0x69, 0x61, 0x6c, 0x2f, 0x64, 0x65, 0x6e, 0x73, 0x65, 0x5f, 0x31, 0x2f, 0x4d, 0x61, 0x74, 0x4d, 0x75, 0x6c, 0x00, 0x00, 0x00, 0x54, 0xed, 0xff, 0xff, 0xaa, 0xee, 0xff, 0xff, 0x04, 0x00, 0x00, 0x00, 0x00, 0x10, 0x00, 0x00, 0xb7, 0xe4, 0x74, 0x3d, 0xdd, 0x75, 0x07, 0x3e, 0x3b, 0xaa, 0x23, 0xbe, 0xfa, 0x5b, 0x27, 0x3e, 0x73, 0x54, 0x5a, 0x3e, 0x8e, 0x42, 0x87, 0xbd, 0xdf, 0x1c, 0x9b, 0xbe, 0x57, 0xfc, 0x81, 0x3e, 0xda, 0xe4, 0xb5, 0x3d, 0x59, 0x09, 0x70, 0x3e, 0xe4, 0xe0, 0x1b, 0xbe, 0x33, 0x50, 0x44, 0x3c, 0x69, 0x27, 0xb1, 0xbe, 0x3e, 0x3e, 0xe1, 0x3d, 0xbe, 0xeb, 0x9e, 0x3d, 0x68, 0xf0, 0xd8, 0x3c, 0xe0, 0xd7, 0xc7, 0xbe, 0x06, 0x6c, 0x1e, 0xbe, 0xb9, 0x8a, 0x26, 0x3e, 0x20, 0x2a, 0x44, 0x3e, 0x30, 0x92, 0x98, 0xbe, 0x18, 0x94, 0x2a, 0x3d, 0xc9, 0x3c, 0x9a, 0xbe, 0x3d, 0x6b, 0x93, 0xbe, 0x92, 0xd0, 0x1e, 0xbd, 0x69, 0x4d, 0x19, 0xbe, 0x76, 0xa8, 0x92, 0xbd, 0xbe, 0x9b, 0xd6, 0xbe, 0xd5, 0xc0, 0x58, 0xbd, 0x64, 0x0f, 0x9f, 0x3d, 0xd5, 0xda, 0xbc, 0xbd, 0x41, 0xfe, 0x96, 0xbe, 0x71, 0x8b, 0xa9, 0xbd, 0x41, 0x1a, 0xfa, 0xbc, 0x30, 0xac, 0x76, 0xbe, 0x33, 0xd1, 0x96, 0xbe, 0xd8, 0x7c, 0x8e, 0xbe, 0x70, 0x3c, 0x97, 0xbe, 0x43, 0x76, 0x8a, 0xbe, 0x91, 0x80, 0xa9, 0xbe, 0x50, 0xf3, 0xfb, 0x3d, 0x47, 0x3d, 0x01, 0xbe, 0x5c, 0xe3, 0x17, 0xbc, 0xdf, 0xa2, 0x6f, 0x3e, 0x48, 0x33, 0x0d, 0xbe, 0x23, 0x90, 0xe0, 0xbd, 0x4b, 0x66, 0x9c, 0x3d, 0xd5, 0xbe, 0xd9, 0xbc, 0xf2, 0x1f, 0xd2, 0x3d, 0x00, 0xb6, 0x22, 0x3e, 0x0f, 0x58, 0x8a, 0xbe, 0xf3, 0x99, 0x9d, 0xbe, 0xd3, 0xa3, 0xda, 0xbd, 0x51, 0x80, 0xd2, 0xbb, 0xcd, 0x0b, 0x97, 0xbd, 0x80, 0xec, 0x5b, 0xbd, 0x09, 0xef, 0x9c, 0xbe, 0x2f, 0xb0, 0xd6, 0xbd, 0x23, 0x2b, 0xac, 0xbe, 0xd4, 0xa0, 0x9d, 0xbe, 0xdf, 0x63, 0x62, 0xbe, 0xea, 0xec, 0xd9, 0xbd, 0x3a, 0x31, 0x43, 0x3d, 0x04, 0xeb, 0x01, 0xbe, 0x12, 0x0e, 0xc9, 0xbd, 0x90, 0x80, 0x3d, 0xbc, 0xa3, 0x29, 0x6f, 0xbe, 0x72, 0xe2, 0x85, 0xbe, 0xf9, 0xeb, 0x6c, 0xbe, 0x3c, 0xd7, 0x42, 0xbd, 0x2f, 0x3d, 0x8a, 0xbe, 0x21, 0xbe, 0x15, 0x3e, 0x54, 0xea, 0xb0, 0x3d, 0x07, 0x6b, 0x10, 0x3e, 0x19, 0xbd, 0x48, 0xbe, 0x9a, 0x61, 0xf2, 0xbd, 0x4a, 0x94, 0xd8, 0xbd, 0x15, 0x53, 0x52, 0xbe, 0x4c, 0x20, 0x88, 0xbe, 0xf1, 0x1b, 0x2c, 0x3e, 0x43, 0x0a, 0x70, 0xbe, 0x16, 0x7a, 0xdb, 0x3d, 0xa8, 0x5b, 0xdd, 0xbd, 0xa8, 0x90, 0xc3, 0x3d, 0xc1, 0xe9, 0xd0, 0xbc, 0x96, 0xc1, 0xe2, 0xbd, 0xed, 0xd1, 0x35, 0x3e, 0xdf, 0xb7, 0x8b, 0x3c, 0x5f, 0x39, 0x1b, 0xbe, 0xa4, 0x1e, 0x08, 0x3d, 0xb2, 0xd7, 0xcd, 0xbd, 0x8b, 0x1c, 0x39, 0xbe, 0x6d, 0xec, 0x91, 0x3e, 0x84, 0x4a, 0x60, 0xbe, 0x0a, 0x35, 0x07, 0xbe, 0x14, 0xfc, 0x1e, 0xbe, 0xdd, 0xa0, 0x00, 0xbe, 0x0b, 0x21, 0x90, 0xbe, 0x84, 0x89, 0x12, 0xbc, 0xde, 0x84, 0x5a, 0xbd, 0x35, 0xdc, 0x89, 0xbe, 0xc6, 0xb3, 0xc8, 0xbd, 0x1d, 0x69, 0xfa, 0xbd, 0x0d, 0x7e, 0xc9, 0xbe, 0xba, 0xae, 0xb0, 0xbd, 0x92, 0x69, 0xb0, 0xbc, 0x2e, 0xd9, 0x7a, 0xbe, 0xaa, 0x32, 0xbc, 0xbe, 0xc3, 0xf5, 0x6f, 0xbe, 0xbc, 0x68, 0xbf, 0xbd, 0xc1, 0xcd, 0xd0, 0x3d, 0xd6, 0x00, 0x41, 0x3e, 0x85, 0xc1, 0x59, 0xbc, 0x5b, 0x7c, 0x13, 0x3e, 0xe4, 0xeb, 0x87, 0xbe, 0xfc, 0x3c, 0xce, 0xbc, 0xf7, 0x47, 0x2d, 0x3e, 0x1d, 0x0b, 0x36, 0x3e, 0x78, 0x98, 0x2b, 0x3e, 0x0a, 0xad, 0xeb, 0x3b, 0x17, 0x77, 0x4c, 0x3d, 0x63, 0x00, 0xa6, 0xbe, 0xc8, 0x2d, 0x56, 0xbe, 0xb6, 0xb4, 0x40, 0xbe, 0x78, 0xdb, 0xd4, 0xbe, 0x40, 0xaf, 0xbe, 0xbe, 0x2c, 0xe6, 0x2b, 0xbe, 0x46, 0x22, 0x18, 0x3e, 0xbb, 0x95, 0xb4, 0xbe, 0xda, 0xb1, 0x21, 0x3e, 0x0e, 0x61, 0x76, 0x3e, 0x79, 0x57, 0xc8, 0xbd, 0x82, 0x66, 0xe2, 0xbc, 0x44, 0x20, 0x93, 0x3d, 0x4d, 0xc8, 0x81, 0xbe, 0x29, 0xfe, 0x59, 0xbe, 0xd3, 0xe8, 0x5c, 0xbd, 0x3c, 0x28, 0x90, 0x3e, 0x34, 0xa3, 0x3c, 0x3e, 0xd7, 0x86, 0x42, 0x3d, 0x97, 0x4b, 0x4a, 0x3e, 0x7f, 0x64, 0x5f, 0xbe, 0x94, 0x71, 0x36, 0xbe, 0x9d, 0xc3, 0x3c, 0xbe, 0x1a, 0x54, 0x64, 0x3e, 0x69, 0x50, 0xcb, 0x3d, 0x37, 0xa5, 0x14, 0xbe, 0xf3, 0x0b, 0x1a, 0xbe, 0x65, 0xac, 0x84, 0xbe, 0xdd, 0x91, 0x3f, 0x3e, 0x16, 0x44, 0x93, 0xbd, 0xfe, 0xe1, 0x86, 0xbd, 0xd3, 0x31, 0xf0, 0xbc, 0x36, 0x32, 0x0c, 0xbe, 0x76, 0xa1, 0x84, 0xbe, 0xa8, 0x6e, 0x58, 0x3e, 0xa8, 0xfb, 0xdb, 0x3d, 0xf7, 0x0b, 0x9f, 0xbd, 0x9b, 0xf4, 0x9d, 0xbe, 0x49, 0x4a, 0x91, 0xbe, 0x49, 0xb0, 0x73, 0x3e, 0x21, 0x29, 0x88, 0x3e, 0xf8, 0x84, 0xe4, 0x3d, 0x12, 0xd3, 0xcb, 0x3b, 0x3f, 0x42, 0xf3, 0x3d, 0x49, 0x36, 0x91, 0x3d, 0x05, 0xad, 0x88, 0x3d, 0x6c, 0x89, 0x60, 0xbe, 0x65, 0x48, 0x41, 0xbe, 0xa9, 0xe1, 0x4e, 0x3d, 0xab, 0x69, 0x7b, 0x3e, 0xb7, 0xda, 0xc0, 0xbd, 0x3b, 0x64, 0xed, 0xbd, 0x0c, 0x16, 0x28, 0xbd, 0x6c, 0xa9, 0x80, 0xbe, 0x8d, 0xfe, 0x80, 0xbd, 0xa2, 0xb9, 0x22, 0xbd, 0x72, 0xfc, 0xb6, 0x3b, 0xbf, 0x03, 0x72, 0x3d, 0xfc, 0xc4, 0x7e, 0xbe, 0x5f, 0xf1, 0xb6, 0xbd, 0x79, 0x24, 0xa4, 0xbd, 0x02, 0x5c, 0x8e, 0x3c, 0xcf, 0x56, 0x82, 0xbe, 0x23, 0x1f, 0x48, 0xbe, 0xbd, 0xb5, 0x9c, 0xbe, 0x13, 0xd7, 0xd5, 0xbe, 0x8a, 0x0c, 0x87, 0x3d, 0xeb, 0xbd, 0xaf, 0xbd, 0xed, 0x18, 0xcc, 0xbe, 0xf7, 0xac, 0x9a, 0xbd, 0xa9, 0xfb, 0x6d, 0xbe, 0x41, 0x40, 0x67, 0x3d, 0xe9, 0x65, 0x3c, 0xbe, 0x17, 0x9b, 0x3f, 0xbe, 0xe7, 0xdf, 0x22, 0x3d, 0xee, 0xe6, 0x18, 0xbd, 0x06, 0xe4, 0x6d, 0xbe, 0x1d, 0xab, 0x5c, 0x3c, 0x30, 0x97, 0xa4, 0x3c, 0x8d, 0xbc, 0xb6, 0xbc, 0x20, 0xc2, 0xb2, 0xbd, 0xc4, 0x27, 0x4b, 0x3e, 0xf6, 0xce, 0xb1, 0xbe, 0x4e, 0x7b, 0xc0, 0xbd, 0xef, 0x4a, 0x91, 0x3d, 0x89, 0xcd, 0x64, 0xbe, 0x51, 0xeb, 0xa1, 0xbe, 0xcf, 0x97, 0x52, 0xbd, 0x73, 0xe2, 0xee, 0xbd, 0x03, 0x93, 0x1a, 0xbe, 0xc8, 0xa1, 0x0c, 0x3e, 0xd0, 0x14, 0xc8, 0x3d, 0xfb, 0x03, 0x0a, 0x3e, 0x0a, 0x14, 0xea, 0xbd, 0xc4, 0x8f, 0x14, 0x3e, 0x10, 0x03, 0xa4, 0x3c, 0xe5, 0xe9, 0x01, 0x3e, 0x86, 0x93, 0x0b, 0xbd, 0x29, 0x76, 0xa6, 0xbd, 0xb0, 0x88, 0xc5, 0xbe, 0xba, 0xe4, 0x80, 0xbe, 0x83, 0xf9, 0x08, 0xbe, 0x91, 0x50, 0xde, 0xbe, 0xed, 0x99, 0xd2, 0x3d, 0x9a, 0x8f, 0xfc, 0x3c, 0x36, 0xeb, 0x5e, 0xbe, 0x16, 0xdc, 0xc1, 0x3c, 0xdf, 0x3d, 0x62, 0xbd, 0x60, 0x5e, 0xb6, 0x3d, 0x1e, 0xfb, 0x29, 0xbe, 0x21, 0x75, 0x2b, 0x3d, 0x54, 0x48, 0xbe, 0xbe, 0x27, 0xfb, 0xaf, 0x3c, 0x09, 0xd3, 0x55, 0xbe, 0xbf, 0xc2, 0x11, 0x3e, 0xd0, 0xad, 0xb7, 0xbc, 0x24, 0xaf, 0x44, 0xbe, 0xdf, 0x9c, 0x44, 0x3e, 0xba, 0x8b, 0x5e, 0x3e, 0xb3, 0x77, 0x68, 0xbe, 0xb3, 0x89, 0x8f, 0x3d, 0xe8, 0x38, 0xa3, 0xbe, 0x93, 0x81, 0xe4, 0xbc, 0x51, 0x39, 0x37, 0xbe, 0x5f, 0x32, 0x86, 0xbd, 0xe3, 0x3d, 0x31, 0xbe, 0xbb, 0x20, 0xa3, 0x3d, 0x62, 0xb1, 0xea, 0xbd, 0x28, 0xb3, 0x79, 0xbe, 0xa2, 0x46, 0x55, 0xbe, 0x79, 0xf9, 0xe1, 0xbd, 0x22, 0x69, 0xd8, 0x3c, 0xe1, 0x76, 0x83, 0xbe, 0x44, 0xfd, 0x9f, 0xbc, 0x80, 0x3e, 0xa6, 0xbe, 0xc4, 0xb7, 0x45, 0xbe, 0x51, 0x99, 0x49, 0xbe, 0xe5, 0xa5, 0x77, 0xbd, 0x2b, 0xba, 0x64, 0xbe, 0x0b, 0x4e, 0xbf, 0x3c, 0xac, 0x43, 0x52, 0xbe, 0xe1, 0xb0, 0x2c, 0x3e, 0x79, 0x78, 0x3d, 0x3e, 0xc7, 0xaa, 0x5f, 0x3e, 0xf3, 0x9e, 0x3a, 0x3d, 0xd6, 0x70, 0x20, 0xbe, 0xe0, 0xba, 0x03, 0xbd, 0xef, 0x0c, 0x71, 0xbe, 0x16, 0x53, 0x5c, 0x3e, 0xce, 0x01, 0x80, 0x3d, 0xf7, 0x75, 0x32, 0xbe, 0xdd, 0x8d, 0xbd, 0xbc, 0xc8, 0x76, 0x8c, 0x3e, 0x1c, 0x45, 0x80, 0x3e, 0x7b, 0xa5, 0x4d, 0xbe, 0xeb, 0x10, 0x18, 0xbc, 0x45, 0xe0, 0x80, 0xbd, 0xb2, 0x2b, 0x9d, 0xbe, 0x23, 0x2a, 0x71, 0xbd, 0x29, 0x17, 0xfe, 0xbd, 0x08, 0x44, 0xbb, 0x3d, 0x44, 0xe4, 0x90, 0xbe, 0x36, 0x8d, 0x8f, 0xbe, 0xe2, 0x19, 0x40, 0x3e, 0x87, 0x57, 0x9d, 0xbe, 0x6f, 0x06, 0x96, 0xbd, 0x70, 0x10, 0x85, 0xbe, 0x1b, 0x52, 0x4f, 0xbe, 0x1f, 0xed, 0x01, 0x3e, 0x7b, 0x8f, 0x5a, 0xbe, 0x62, 0x30, 0x35, 0xbe, 0x99, 0xb9, 0x59, 0xbe, 0x76, 0x8b, 0xe9, 0x3d, 0xf3, 0x16, 0x89, 0x3e, 0xb1, 0x72, 0xe9, 0x3c, 0x02, 0x17, 0x37, 0xbe, 0x0d, 0x15, 0x0b, 0xbe, 0xe8, 0xfa, 0x90, 0xbc, 0xf9, 0x7d, 0x4e, 0xbe, 0x0d, 0x04, 0xf6, 0xbc, 0x5e, 0x7c, 0x16, 0xbd, 0xed, 0x47, 0x0b, 0x3d, 0x3e, 0xcb, 0x5f, 0xbe, 0x43, 0x97, 0x5c, 0x3e, 0xc6, 0xb9, 0xab, 0xbe, 0x22, 0xfc, 0x8b, 0xbe, 0x03, 0x2b, 0x29, 0xbe, 0x41, 0x74, 0x14, 0x3e, 0x2b, 0xe9, 0xa4, 0x3d, 0x06, 0xd6, 0xd7, 0xbd, 0xd2, 0x03, 0x5f, 0x3e, 0x53, 0x4e, 0x6f, 0xbe, 0x95, 0xd2, 0x4c, 0xbe, 0x3d, 0x2f, 0x8f, 0x3e, 0x74, 0xf6, 0x2c, 0xbe, 0xe1, 0x31, 0x45, 0xbd, 0x5b, 0xfe, 0x5b, 0x3e, 0x37, 0xe7, 0x7e, 0xbd, 0x2d, 0x53, 0xa6, 0x3d, 0x84, 0x19, 0x35, 0xbe, 0xe7, 0x59, 0x20, 0x3e, 0x01, 0xa5, 0xc8, 0xbd, 0x43, 0x21, 0x2a, 0xbc, 0xf0, 0xb4, 0x4d, 0x3e, 0x75, 0x6c, 0xba, 0xbe, 0x34, 0x0b, 0xc1, 0x3d, 0xd7, 0x95, 0x31, 0xbe, 0xc3, 0x5e, 0xde, 0xbc, 0x7d, 0x9e, 0xe2, 0x3d, 0x85, 0x0a, 0x8c, 0xbe, 0xc3, 0xf5, 0x1b, 0xbe, 0xd1, 0x9e, 0x01, 0x3d, 0x45, 0x27, 0x12, 0x3d, 0x0b, 0x1d, 0xee, 0xbe, 0xf2, 0x5f, 0xa4, 0xbd, 0xc8, 0x35, 0x01, 0x3e, 0x7f, 0xb4, 0x12, 0x3e, 0x33, 0xb1, 0x87, 0x3d, 0x74, 0xb1, 0x27, 0xbe, 0x35, 0x64, 0xad, 0xbe, 0x42, 0x2a, 0x51, 0x3e, 0x24, 0xb6, 0xec, 0xbc, 0x7f, 0x53, 0xbb, 0x3d, 0xf5, 0x73, 0x85, 0x3d, 0x71, 0x2f, 0x98, 0xbe, 0xc5, 0x20, 0x1a, 0xbe, 0xbe, 0x99, 0xe4, 0xbe, 0x56, 0x94, 0x96, 0xbe, 0x9f, 0x01, 0xbe, 0xbd, 0x06, 0x5b, 0x2d, 0xbe, 0x15, 0xeb, 0x6b, 0xbe, 0xf7, 0x0a, 0x92, 0x3d, 0x30, 0x89, 0xac, 0xbe, 0xb1, 0x50, 0x60, 0x3d, 0xec, 0x1b, 0xb3, 0xbe, 0x9d, 0xc7, 0x05, 0x3e, 0xa7, 0x14, 0x19, 0x3d, 0x36, 0xda, 0x77, 0xbd, 0x19, 0x41, 0xd7, 0x3d, 0x11, 0x65, 0xa8, 0xbd, 0xd9, 0x7b, 0xc0, 0xbe, 0xa9, 0xbb, 0x92, 0xbd, 0x86, 0xad, 0x86, 0x3e, 0x40, 0xe8, 0x4f, 0x3e, 0xc9, 0xb8, 0x90, 0xbe, 0x9c, 0xb5, 0xc2, 0xbc, 0x15, 0xdc, 0x18, 0xbd, 0x7a, 0xda, 0xdf, 0xbd, 0x4d, 0x69, 0x86, 0x3e, 0xbd, 0x31, 0x0f, 0xbd, 0xd9, 0xc3, 0x84, 0x3e, 0xd8, 0x0a, 0x14, 0xbe, 0x88, 0x76, 0x1b, 0xbd, 0x05, 0x6f, 0x9e, 0x3e, 0xe9, 0xac, 0x9a, 0xbc, 0x1e, 0xfa, 0x3e, 0x3c, 0x22, 0x37, 0x78, 0xbe, 0x49, 0xd2, 0xa0, 0xbe, 0x9d, 0xaa, 0xd2, 0xbe, 0x61, 0x53, 0xb4, 0x3d, 0x51, 0xa9, 0x8c, 0xbe, 0xca, 0xcf, 0x85, 0xbe, 0x09, 0x9e, 0x86, 0xbe, 0xf4, 0x8c, 0x9f, 0xbe, 0xbb, 0xf4, 0xd9, 0x3d, 0x4e, 0x81, 0x26, 0x3e, 0x1a, 0xff, 0x38, 0x3e, 0xfd, 0x52, 0x6e, 0x3d, 0x2f, 0x0f, 0x4c, 0xbe, 0x96, 0x03, 0xfd, 0x3c, 0x92, 0x58, 0xc8, 0xbe, 0x6b, 0x64, 0x25, 0xbe, 0x1e, 0xa0, 0xd2, 0xbd, 0x40, 0xda, 0x90, 0x3d, 0xd7, 0x42, 0x0d, 0xbe, 0xc4, 0x62, 0xc3, 0x3c, 0x62, 0x86, 0x57, 0xbd, 0x4a, 0x80, 0x8f, 0x3d, 0xe2, 0x26, 0x67, 0xbe, 0x65, 0xc3, 0x6e, 0xbe, 0xe0, 0x76, 0xad, 0x3b, 0xaf, 0x65, 0xaf, 0xbe, 0xdd, 0xb7, 0xf0, 0x3d, 0x6b, 0x05, 0x13, 0xbe, 0x1f, 0xd3, 0x6a, 0xbe, 0x6a, 0x8f, 0x7c, 0xbd, 0xf3, 0xeb, 0xa0, 0xbe, 0x42, 0x4b, 0x32, 0x3e, 0x92, 0xee, 0xb2, 0xbd, 0x28, 0xcd, 0xd3, 0xbe, 0x0e, 0xa0, 0x23, 0xbe, 0x0f, 0x9d, 0x1a, 0x3e, 0x57, 0xe9, 0xcf, 0xbe, 0x4a, 0xeb, 0x0c, 0x3d, 0xca, 0x9e, 0xf0, 0x3d, 0x16, 0x31, 0x55, 0x3d, 0x83, 0x2e, 0x8e, 0x3d, 0x15, 0x2c, 0x2a, 0xbe, 0xe1, 0xe5, 0x91, 0x3e, 0xb6, 0x95, 0xa0, 0x3c, 0xc6, 0x2a, 0x60, 0xbe, 0xd1, 0xad, 0x64, 0x3e, 0x29, 0x8e, 0xcc, 0x3d, 0x53, 0x5f, 0xd6, 0x3d, 0x00, 0x95, 0x15, 0xbe, 0x44, 0x86, 0x3b, 0xbc, 0xf1, 0x5d, 0x66, 0xbe, 0xf2, 0x11, 0x12, 0x3c, 0x73, 0xee, 0x00, 0x3e, 0x36, 0x8c, 0x98, 0xbe, 0xac, 0x2c, 0xb8, 0xbd, 0x6a, 0x2c, 0x62, 0xbe, 0x69, 0x03, 0x85, 0xbe, 0x88, 0xc9, 0x7f, 0xbe, 0xa4, 0xcd, 0x89, 0xbd, 0xa6, 0x4f, 0x0a, 0xbd, 0xb9, 0x13, 0x1f, 0x3d, 0xe7, 0x3f, 0x88, 0xbe, 0x04, 0x2b, 0x0b, 0xbe, 0x22, 0x92, 0x97, 0xbe, 0xc8, 0x03, 0x22, 0xbe, 0x5b, 0xe4, 0xce, 0x3d, 0x17, 0xef, 0xb6, 0xbe, 0xf7, 0x48, 0x63, 0xbe, 0xa6, 0xb4, 0x99, 0x3c, 0x09, 0xed, 0xef, 0xbe, 0x4b, 0x9b, 0x6f, 0xbe, 0xef, 0x9b, 0x0d, 0xbc, 0x4d, 0x1d, 0x18, 0xbd, 0x40, 0x60, 0x6d, 0xbb, 0x99, 0x31, 0xde, 0xbc, 0xf7, 0x37, 0x8d, 0xbe, 0x8d, 0x9d, 0x8e, 0xbd, 0x56, 0xa8, 0x47, 0xbe, 0x28, 0x59, 0x1e, 0xbc, 0x68, 0x84, 0x20, 0x3e, 0x65, 0xd4, 0x78, 0xbe, 0x48, 0xc0, 0xc2, 0xbd, 0xdc, 0xe8, 0x7b, 0xbd, 0x14, 0x09, 0x9f, 0x3e, 0xc9, 0xb1, 0xc7, 0xbe, 0xa9, 0xce, 0xac, 0xbd, 0x3a, 0xf3, 0x8b, 0x3d, 0x62, 0x31, 0x12, 0xbe, 0x5c, 0x0e, 0xcd, 0xbc, 0xbd, 0x45, 0x0f, 0x3e, 0x46, 0xb0, 0x11, 0x3d, 0x8d, 0x00, 0x2a, 0x3e, 0xb0, 0x26, 0x52, 0xbe, 0xa4, 0xdc, 0x75, 0x3e, 0xd8, 0xf5, 0xb1, 0xbd, 0x79, 0xf6, 0xd7, 0x3e, 0x1f, 0x3c, 0xc1, 0xbd, 0xa1, 0xd7, 0xa9, 0xbe, 0xc2, 0xa5, 0x35, 0xbe, 0x34, 0xa6, 0xfd, 0x3c, 0xc2, 0xca, 0x7e, 0xbc, 0x1c, 0xcb, 0x04, 0x3e, 0x17, 0xcd, 0x44, 0xbe, 0x4d, 0x6f, 0x26, 0x3e, 0xf8, 0x7f, 0x5b, 0xbe, 0xbe, 0x05, 0x92, 0x3d, 0x75, 0xb2, 0x0c, 0xbe, 0xd3, 0xef, 0xb2, 0xbe, 0x50, 0x66, 0x2a, 0xbb, 0x0c, 0x92, 0x17, 0xbe, 0xec, 0x29, 0x61, 0x3d, 0xd9, 0x9c, 0xd3, 0xbd, 0x58, 0x8f, 0x45, 0x3e, 0x39, 0xf3, 0x1b, 0x3d, 0x76, 0x96, 0x53, 0xbe, 0xaf, 0x0d, 0xa8, 0x3e, 0xcd, 0x07, 0x69, 0xbe, 0x06, 0xa6, 0x8a, 0x3d, 0xc3, 0xe4, 0x68, 0x3e, 0xe5, 0x1d, 0x43, 0xbe, 0x6b, 0x1e, 0x77, 0xbe, 0xb0, 0x74, 0x57, 0x3c, 0x1b, 0x29, 0x09, 0xbe, 0x4d, 0x5f, 0x28, 0x3e, 0x4f, 0xe8, 0x44, 0xbe, 0x9d, 0x85, 0xfa, 0x3d, 0x43, 0x0c, 0x2f, 0x3e, 0xa3, 0x45, 0xcd, 0x3d, 0x0d, 0x7c, 0x31, 0xbe, 0xcc, 0xe1, 0xf7, 0xbd, 0x7e, 0x16, 0x2f, 0x3e, 0xd1, 0x9a, 0xa0, 0xbe, 0xac, 0x9e, 0x28, 0xbd, 0x55, 0x83, 0x9d, 0xbe, 0x66, 0xba, 0x13, 0x3e, 0xa7, 0xa2, 0x29, 0x3c, 0x9d, 0xe5, 0x5c, 0x3e, 0x11, 0x36, 0xd6, 0xbd, 0xf7, 0xcc, 0x63, 0xbd, 0x9b, 0x85, 0xc1, 0x3d, 0x01, 0x58, 0x14, 0x3e, 0x35, 0xd2, 0x80, 0x3e, 0xce, 0xd4, 0x00, 0x3d, 0xa4, 0xca, 0x5f, 0x3d, 0xe5, 0x5b, 0x1c, 0xbf, 0x23, 0x0d, 0x00, 0x3e, 0x28, 0x43, 0x88, 0xbe, 0x3d, 0x8f, 0xe5, 0xbd, 0x0e, 0x82, 0x53, 0x3e, 0x4a, 0xe3, 0xca, 0xbc, 0xaa, 0x09, 0xfe, 0xbd, 0xeb, 0xc4, 0x31, 0x3e, 0x13, 0x49, 0x6c, 0x3e, 0x84, 0x8c, 0x43, 0x3e, 0x5d, 0x4d, 0x98, 0xbd, 0x40, 0x1e, 0x19, 0xbd, 0x17, 0x7c, 0x8f, 0xbe, 0x79, 0x7c, 0x06, 0xbe, 0x07, 0x97, 0xfa, 0x3d, 0x14, 0x0e, 0x96, 0x3b, 0x8a, 0x99, 0xad, 0xbe, 0x35, 0xe3, 0x01, 0xbe, 0xbe, 0xdb, 0x67, 0xbe, 0x6a, 0x44, 0xff, 0x3d, 0xe6, 0x00, 0xeb, 0xbd, 0x2c, 0x54, 0x50, 0x3e, 0xf0, 0x4f, 0x55, 0x3d, 0xa7, 0xb4, 0x03, 0x3c, 0xae, 0xef, 0xf0, 0xbd, 0xe3, 0x6a, 0x1c, 0xbe, 0x9a, 0xab, 0x84, 0xbd, 0xc4, 0x2b, 0xa2, 0x3d, 0xa0, 0xed, 0x84, 0xbe, 0xf9, 0xb5, 0x80, 0xbe, 0x09, 0x99, 0xf3, 0x3d, 0x3e, 0xe3, 0x3e, 0xbd, 0x75, 0xd8, 0x8b, 0xbd, 0x7b, 0x31, 0x34, 0xbd, 0x3b, 0x2a, 0x76, 0xbe, 0xef, 0xf8, 0x22, 0x3e, 0x2a, 0xae, 0x2a, 0x3d, 0x69, 0xd4, 0xc4, 0xbd, 0x5f, 0x21, 0x1f, 0xbe, 0x6f, 0x4e, 0x77, 0xbe, 0x11, 0x13, 0x4f, 0x3d, 0xe6, 0x74, 0x7a, 0xbe, 0x19, 0xc4, 0xab, 0xbb, 0x34, 0x96, 0x3a, 0x3e, 0xb9, 0xdc, 0x8c, 0xbc, 0xe5, 0x0b, 0x30, 0xbc, 0x27, 0x23, 0x61, 0x3e, 0xfb, 0x75, 0x97, 0xbd, 0x73, 0x96, 0xf3, 0x3d, 0xe6, 0x33, 0xbc, 0x3d, 0x27, 0x9e, 0x5a, 0x3e, 0x1a, 0x67, 0xf4, 0xbd, 0x3a, 0xd6, 0xcf, 0x3c, 0x4a, 0xd1, 0x13, 0xbd, 0x34, 0x88, 0xea, 0xbd, 0x1b, 0xea, 0x80, 0xbc, 0x74, 0xc4, 0x53, 0xbd, 0x2c, 0xd9, 0x19, 0x3e, 0xe5, 0xf8, 0x24, 0x3e, 0x46, 0x50, 0x80, 0xbe, 0x47, 0x28, 0xb3, 0xbe, 0xb6, 0x97, 0x07, 0x3e, 0xbe, 0x60, 0xb3, 0xbe, 0x11, 0x18, 0x91, 0xbb, 0xac, 0x1c, 0x7c, 0xbd, 0x26, 0x7c, 0x4e, 0xbe, 0xf3, 0x16, 0xc6, 0xbe, 0x2c, 0x67, 0x4d, 0xbd, 0xc7, 0xb5, 0xd3, 0xbe, 0x18, 0x5a, 0x47, 0xbe, 0x34, 0x77, 0x84, 0xbe, 0x4e, 0x49, 0x53, 0xbd, 0x41, 0xf4, 0xbd, 0x3b, 0xfa, 0x21, 0x06, 0x3e, 0xc7, 0x69, 0xce, 0xbc, 0xc2, 0xb3, 0x9d, 0xbe, 0xd2, 0x61, 0x1e, 0x3d, 0x52, 0xf0, 0x81, 0xbe, 0xc8, 0x46, 0x1e, 0xbd, 0xe9, 0xd5, 0xb1, 0x3c, 0x7f, 0xe8, 0x05, 0xbe, 0x64, 0x05, 0xc2, 0xbd, 0xc6, 0x6f, 0x85, 0xbe, 0x19, 0xd7, 0xb9, 0x3d, 0x8f, 0x29, 0x3c, 0xbe, 0x27, 0xb2, 0xcb, 0x3d, 0xf0, 0xbc, 0xd5, 0xbd, 0xcb, 0xef, 0x60, 0xbe, 0x02, 0x3b, 0x36, 0xbd, 0xaf, 0x9c, 0x81, 0xbe, 0x4d, 0x38, 0x07, 0x3e, 0xa9, 0xae, 0x3c, 0x3e, 0xbb, 0xaf, 0xb6, 0xbd, 0x44, 0x39, 0x2f, 0xbe, 0x59, 0xf4, 0x15, 0x3e, 0x4f, 0x8a, 0x70, 0xbe, 0x22, 0xce, 0x4a, 0xbe, 0x19, 0xf1, 0x67, 0x3e, 0x37, 0xc2, 0x3a, 0x3d, 0x75, 0xce, 0x8a, 0xbe, 0x68, 0x15, 0x22, 0xbc, 0xff, 0x5e, 0x80, 0xbe, 0x7d, 0x9b, 0xce, 0x3d, 0xd9, 0x79, 0x04, 0x3e, 0x52, 0xa3, 0x89, 0xbe, 0x21, 0x2c, 0x4f, 0xbe, 0x03, 0xdd, 0x1a, 0xbe, 0x99, 0x96, 0xac, 0xbb, 0x1b, 0x59, 0x82, 0x3d, 0x55, 0xeb, 0x75, 0xbe, 0x05, 0x8a, 0xda, 0x3d, 0xff, 0xc8, 0x82, 0xbe, 0x37, 0xed, 0x41, 0x3e, 0x56, 0x8e, 0x5c, 0xbd, 0x80, 0x48, 0x52, 0x3e, 0xdc, 0x01, 0x76, 0x3e, 0x25, 0x64, 0x16, 0xbe, 0x86, 0x48, 0xb0, 0xbe, 0x22, 0x98, 0x55, 0xbe, 0x32, 0x30, 0x83, 0x3e, 0x5f, 0x53, 0x86, 0x3e, 0x3a, 0x9b, 0xc6, 0xbd, 0xed, 0xba, 0xe1, 0xbc, 0x2a, 0x09, 0x5a, 0x3e, 0x43, 0x2f, 0x38, 0xbd, 0xad, 0x06, 0x12, 0xbe, 0x5b, 0x02, 0x70, 0x3d, 0x4b, 0xcb, 0x02, 0x3d, 0x3c, 0x42, 0x3b, 0xbe, 0xa3, 0x56, 0x7f, 0x3e, 0xcb, 0x91, 0x99, 0xbe, 0xcc, 0xec, 0x6d, 0x3e, 0x26, 0x31, 0x4f, 0xbd, 0x9e, 0x47, 0x0d, 0xbe, 0x05, 0x48, 0x63, 0xbe, 0x98, 0x58, 0x3d, 0xba, 0x7e, 0xcc, 0x66, 0xbd, 0xb4, 0xdc, 0x52, 0x3e, 0xc9, 0x01, 0x42, 0x3d, 0xf6, 0x38, 0xbe, 0xbe, 0x1e, 0xca, 0x1e, 0xbe, 0xd7, 0xab, 0x8c, 0x3e, 0xec, 0xcd, 0x66, 0xbe, 0x50, 0x7f, 0x8a, 0xbe, 0xc5, 0x03, 0x0f, 0xbe, 0x94, 0x11, 0x43, 0xbd, 0x47, 0x1f, 0x69, 0x3d, 0x00, 0x82, 0xc1, 0xbe, 0x97, 0x8c, 0xeb, 0xbb, 0x4c, 0x9e, 0x9c, 0xbd, 0x8d, 0x9c, 0xcf, 0xbe, 0xb5, 0xb8, 0x1e, 0xbd, 0x38, 0x03, 0x27, 0x3d, 0x47, 0xa2, 0x53, 0xbe, 0x3a, 0x49, 0x27, 0x3d, 0xad, 0xef, 0x3a, 0x3e, 0x18, 0xae, 0xa2, 0xbe, 0x01, 0x9b, 0x39, 0x3e, 0xa5, 0xda, 0x4e, 0xbe, 0x5d, 0x2d, 0x8f, 0x3d, 0x79, 0x67, 0xb6, 0x3c, 0x23, 0x50, 0x2c, 0x3e, 0x5e, 0x32, 0x2d, 0xbe, 0xaf, 0x08, 0x43, 0xbe, 0x3b, 0x1e, 0xb6, 0x3d, 0x50, 0x13, 0x9a, 0xbe, 0xec, 0xce, 0x1a, 0x3e, 0xc4, 0x06, 0x4a, 0xbe, 0xda, 0xbb, 0x8c, 0xbd, 0x70, 0xc7, 0x1f, 0xbd, 0x8b, 0x0a, 0x6b, 0x3e, 0xc0, 0x2b, 0x58, 0x3e, 0x66, 0x12, 0x41, 0xbd, 0x45, 0x59, 0xb4, 0xbe, 0x5f, 0x91, 0x67, 0xbe, 0x04, 0xe2, 0x4d, 0xbe, 0xa4, 0x9a, 0x04, 0xbc, 0xe7, 0xa8, 0x05, 0xbe, 0xaf, 0xb8, 0xc9, 0xbd, 0xa4, 0x30, 0xd7, 0xbd, 0xd0, 0x1c, 0x06, 0xbd, 0xa3, 0x2f, 0xa8, 0x3c, 0xd7, 0xdb, 0x65, 0xbe, 0x6a, 0x15, 0x76, 0xbe, 0x7c, 0x64, 0xdd, 0xbd, 0x18, 0xe5, 0x92, 0xbe, 0xce, 0x14, 0xb7, 0xbd, 0x32, 0x87, 0x4b, 0x3e, 0x92, 0xee, 0xec, 0xbd, 0xea, 0x75, 0x7f, 0xbe, 0xc0, 0xd6, 0x60, 0xbc, 0x25, 0xb3, 0x3d, 0xbe, 0xa2, 0xf9, 0x02, 0xbe, 0x00, 0x6e, 0xcf, 0x3b, 0xc2, 0x43, 0x86, 0xbe, 0xae, 0x4e, 0x2c, 0xbe, 0xb3, 0xb6, 0x83, 0x3e, 0xc2, 0x02, 0x09, 0x3e, 0x9b, 0x88, 0x41, 0xbe, 0x14, 0x10, 0x42, 0x3e, 0x67, 0x78, 0x04, 0xbe, 0x7a, 0xf2, 0xe8, 0xbd, 0x40, 0xd4, 0xa1, 0x3c, 0x82, 0xe0, 0x89, 0xbe, 0xfc, 0x8c, 0x89, 0x3d, 0x50, 0xb9, 0xcb, 0xbd, 0x04, 0x54, 0x3f, 0x3e, 0x00, 0x32, 0xf9, 0x3b, 0xd2, 0x77, 0x8b, 0xbe, 0x10, 0x6a, 0x51, 0x3d, 0x06, 0x81, 0x39, 0x3e, 0x86, 0x50, 0x4b, 0x3e, 0x00, 0x57, 0x77, 0xbc, 0xa6, 0xae, 0xb5, 0xbd, 0x68, 0xf7, 0x1e, 0x3e, 0x11, 0x4b, 0xf5, 0x3c, 0xa2, 0x79, 0x02, 0x3e, 0x72, 0x96, 0x34, 0x3e, 0x81, 0x50, 0xfe, 0xbd, 0xbb, 0x73, 0xa7, 0xbe, 0x4a, 0x43, 0x15, 0xbe, 0xf3, 0x33, 0x01, 0x3e, 0x28, 0x72, 0xe5, 0x3d, 0x88, 0xe9, 0x2a, 0xbe, 0x8a, 0x60, 0x4e, 0x3e, 0x8f, 0x29, 0x7e, 0xbd, 0x55, 0x9f, 0x9d, 0xbe, 0x0d, 0xab, 0x75, 0xbe, 0xe4, 0xf7, 0xae, 0xbe, 0x5b, 0x21, 0x8b, 0xbe, 0x7f, 0xe8, 0x27, 0xbe, 0x81, 0xff, 0xd5, 0x3d, 0x3f, 0x00, 0x04, 0x3d, 0x21, 0x89, 0x54, 0xbe, 0x38, 0x74, 0xa7, 0xbe, 0xbf, 0xa8, 0xd1, 0xbd, 0xbe, 0x48, 0xbc, 0x3c, 0xe1, 0x83, 0x60, 0xbe, 0xe1, 0x4e, 0x53, 0x3e, 0xdc, 0x64, 0x17, 0x3e, 0x43, 0xdb, 0x02, 0x3c, 0x90, 0x42, 0x57, 0x3e, 0xff, 0x78, 0xbd, 0x3b, 0x35, 0x46, 0x43, 0x3e, 0xcf, 0x78, 0x3f, 0xbe, 0x63, 0x06, 0x0d, 0xbe, 0x6b, 0x58, 0xf1, 0x3d, 0xc8, 0x5e, 0xe3, 0x3e, 0x8c, 0x42, 0x19, 0xbd, 0xde, 0xb2, 0xb7, 0x3d, 0x01, 0x69, 0x80, 0xbd, 0xa0, 0x0b, 0x8f, 0x3d, 0xfe, 0xd5, 0x6a, 0x3e, 0x57, 0xff, 0x00, 0xbe, 0x81, 0x44, 0x94, 0x3e, 0xfa, 0x65, 0x05, 0xbe, 0xf6, 0x23, 0xb0, 0xbe, 0x53, 0x34, 0xfd, 0xbc, 0x6b, 0x45, 0x6f, 0x3e, 0xb4, 0x9b, 0x2f, 0xbe, 0x62, 0xb4, 0x64, 0xbe, 0xf2, 0x60, 0x04, 0xbe, 0x11, 0x32, 0x50, 0xbd, 0x4d, 0xd3, 0x39, 0x3e, 0x3d, 0x6d, 0x29, 0x3e, 0x55, 0x0d, 0xc9, 0xbd, 0x3e, 0x4d, 0xeb, 0x3e, 0x10, 0x8d, 0xaa, 0xbe, 0xc2, 0x15, 0x28, 0x3d, 0x0d, 0x4e, 0xf3, 0xbd, 0xf7, 0xd4, 0xd9, 0x3d, 0x54, 0x9e, 0xaf, 0xbe, 0x03, 0xea, 0xad, 0xbe, 0xcf, 0x06, 0xe7, 0xbc, 0xd1, 0x1a, 0xa1, 0xbd, 0x63, 0x09, 0x04, 0xbe, 0x5c, 0x4a, 0x97, 0xbd, 0xbc, 0x0b, 0x8b, 0x3d, 0x76, 0xec, 0x72, 0xbe, 0x00, 0x7d, 0xf2, 0xbd, 0xd1, 0x65, 0x4e, 0xbe, 0xab, 0xb9, 0x3b, 0x3d, 0x0f, 0x70, 0x83, 0xbe, 0x64, 0x2e, 0x3e, 0x3e, 0xb2, 0x3b, 0xed, 0xbd, 0x04, 0x7e, 0x6c, 0xbe, 0x8e, 0xba, 0x6a, 0xbe, 0xdd, 0x36, 0xf2, 0x3c, 0x8d, 0xcd, 0x20, 0x3d, 0x60, 0x47, 0x4b, 0xbe, 0x22, 0x13, 0x29, 0xbe, 0x93, 0xf8, 0x23, 0x3e, 0xad, 0xa4, 0x39, 0xbe, 0xb3, 0xd4, 0xbc, 0xbd, 0xd6, 0xa7, 0x3a, 0xbd, 0xe9, 0x5f, 0x31, 0x3e, 0x15, 0xff, 0x71, 0xbe, 0x13, 0xf4, 0x90, 0xbe, 0xe7, 0xcd, 0xe0, 0x3b, 0x21, 0xa4, 0x31, 0xbe, 0xe8, 0xd5, 0x75, 0x3e, 0x23, 0x79, 0x4c, 0xbe, 0x71, 0x12, 0x4f, 0x3e, 0xaa, 0x13, 0x31, 0xbd, 0x68, 0xa8, 0x9a, 0x3d, 0x53, 0x6a, 0x56, 0xbe, 0x66, 0xed, 0x04, 0x3d, 0xf3, 0x3f, 0x55, 0xbe, 0x64, 0xc9, 0x7d, 0xbd, 0x0a, 0x53, 0x73, 0x3e, 0x6f, 0x00, 0x2a, 0xbe, 0x4b, 0x97, 0x02, 0xbd, 0xd7, 0x3e, 0xad, 0x3d, 0x62, 0x12, 0x36, 0xbe, 0xa7, 0x59, 0x64, 0xbe, 0x72, 0x93, 0x20, 0xbe, 0x2a, 0x4a, 0x5a, 0xbe, 0xb5, 0x46, 0xeb, 0x3d, 0xdc, 0xb6, 0xb7, 0xbc, 0x4a, 0xc2, 0x26, 0x3e, 0x5f, 0x47, 0x70, 0x3e, 0xfb, 0x9e, 0x19, 0xbe, 0x1d, 0xcd, 0x66, 0x3e, 0x47, 0xd7, 0x5e, 0xbe, 0xba, 0xef, 0x1b, 0x3e, 0xfc, 0xc7, 0x0f, 0xbd, 0xa8, 0xe7, 0x22, 0xbd, 0x58, 0x82, 0x7b, 0xbb, 0xd9, 0x40, 0x98, 0xbd, 0x15, 0x0d, 0x22, 0x3e, 0x51, 0xf4, 0x72, 0xbe, 0x26, 0xa2, 0x90, 0xbe, 0x6c, 0xf2, 0x10, 0xbe, 0x55, 0x1f, 0x34, 0x3d, 0x0e, 0x80, 0x87, 0xbe, 0x54, 0x93, 0x4a, 0xbe, 0x18, 0x6c, 0x4a, 0x3d, 0xeb, 0x74, 0xde, 0x3d, 0x3d, 0x83, 0x4b, 0xbe, 0x49, 0x48, 0x72, 0xbe, 0x32, 0x3f, 0x2e, 0x3d, 0x6a, 0x33, 0x0c, 0x3e, 0x13, 0x51, 0x47, 0x3e, 0xc3, 0x53, 0x85, 0xbe, 0xbb, 0xc8, 0x0c, 0xbe, 0x22, 0xbc, 0x85, 0x3d, 0xb7, 0x8a, 0x9c, 0x3d, 0x2b, 0x5d, 0x65, 0xbe, 0xe2, 0x8b, 0xb2, 0xbe, 0x9a, 0x67, 0x4f, 0x3e, 0x81, 0x0d, 0x0d, 0xbe, 0xbf, 0x7e, 0x16, 0x3e, 0xd9, 0x86, 0x77, 0x3e, 0xc8, 0x01, 0xa8, 0xbe, 0xc6, 0x43, 0x0b, 0x3e, 0xbf, 0xf9, 0x4c, 0xbb, 0x84, 0x09, 0xf6, 0xbd, 0xdb, 0x78, 0x1a, 0x3e, 0xd8, 0x11, 0x21, 0xbe, 0xf1, 0x49, 0x99, 0xbe, 0x5d, 0x9c, 0x96, 0x3e, 0xc9, 0x92, 0xb7, 0x3c, 0x59, 0x4b, 0x92, 0xbe, 0x65, 0x33, 0x94, 0xbe, 0x26, 0x29, 0x8c, 0x3e, 0x70, 0x1b, 0xbb, 0x3d, 0xb2, 0x95, 0x83, 0xbe, 0x9d, 0xb8, 0xf9, 0x3d, 0x36, 0x41, 0x3b, 0x3e, 0x57, 0x5a, 0x2d, 0xbe, 0x7f, 0xbd, 0x83, 0x3e, 0x7e, 0xeb, 0x6f, 0xbe, 0xfb, 0x1d, 0x72, 0x3d, 0x2b, 0x40, 0xaa, 0x3d, 0x25, 0x96, 0x53, 0x3e, 0x26, 0xe6, 0xb9, 0x3d, 0x22, 0xe2, 0x5b, 0xbe, 0x1d, 0xf0, 0x0c, 0xbe, 0x63, 0x0c, 0xc9, 0x3c, 0x3a, 0xe2, 0x51, 0x3d, 0xcb, 0xc9, 0x84, 0xbd, 0x05, 0x6a, 0xa6, 0xbd, 0xce, 0xe8, 0x8f, 0xbe, 0x92, 0x89, 0x21, 0x3e, 0xfe, 0x2c, 0x07, 0x3e, 0x35, 0x91, 0xba, 0x3d, 0x64, 0x05, 0xa4, 0xbd, 0xfe, 0x6e, 0x04, 0x3d, 0x6f, 0x02, 0xa6, 0xbe, 0x16, 0x0b, 0x11, 0xbe, 0xb2, 0xae, 0x40, 0xbe, 0x80, 0x3e, 0x2c, 0xbe, 0x1f, 0x1c, 0x61, 0xbe, 0xda, 0x0a, 0x31, 0xbd, 0x36, 0x28, 0x5b, 0x3d, 0x9c, 0x28, 0x69, 0x3e, 0x6d, 0xd8, 0x3c, 0xbe, 0xdc, 0x28, 0x1a, 0xbe, 0x89, 0x19, 0xa0, 0xbe, 0x17, 0xaa, 0x3e, 0x3e, 0xaa, 0x00, 0xb3, 0x3c, 0xe9, 0x4f, 0x03, 0xbe, 0x45, 0x30, 0x84, 0x3d, 0x02, 0xf1, 0x41, 0xbd, 0x36, 0x07, 0x13, 0xbe, 0x11, 0x94, 0xf1, 0xbc, 0x06, 0xe7, 0xbd, 0xbd, 0xc1, 0xaf, 0xa6, 0xbd, 0x5e, 0x58, 0x17, 0xbe, 0x7d, 0xb1, 0x98, 0xbe, 0x5e, 0x00, 0x52, 0xbe, 0x2f, 0x62, 0xd6, 0x3d, 0xe2, 0x25, 0xc2, 0xbd, 0x37, 0xc4, 0xe5, 0xbd, 0x3b, 0x14, 0x9d, 0xbc, 0xdb, 0x4d, 0x41, 0x3d, 0xc9, 0xf7, 0xad, 0xbe, 0xe0, 0xe4, 0x1b, 0xbe, 0xe3, 0xb8, 0xa1, 0xbe, 0x15, 0x1d, 0x26, 0xbe, 0xc9, 0xb0, 0x68, 0xbe, 0x86, 0x0f, 0xea, 0xbd, 0x97, 0x70, 0x73, 0xbd, 0x59, 0x29, 0x66, 0xbe, 0x0f, 0xca, 0xd3, 0x3d, 0x2c, 0x86, 0xa1, 0x3e, 0x76, 0xea, 0x94, 0xbe, 0x6b, 0xa0, 0x7a, 0xbd, 0x30, 0x5a, 0x28, 0x3e, 0xf9, 0xa0, 0xaa, 0xbd, 0xea, 0xc0, 0x97, 0xbe, 0xf2, 0xfb, 0x57, 0xbe, 0x85, 0x92, 0x2a, 0xbd, 0x6b, 0x73, 0x18, 0x3b, 0x89, 0x1f, 0x21, 0xbd, 0xac, 0xb1, 0x24, 0x3e, 0x63, 0x95, 0xc2, 0xbd, 0x1d, 0x0c, 0x58, 0xbe, 0x1a, 0x05, 0x2c, 0x3e, 0x5e, 0x0e, 0x58, 0x3e, 0x29, 0xb4, 0xb3, 0xbc, 0xe9, 0x1b, 0x6d, 0xbe, 0xe9, 0x44, 0xcc, 0x3b, 0x32, 0xcf, 0x94, 0xbe, 0xd7, 0x90, 0xed, 0x3d, 0xc9, 0xdf, 0xab, 0xbd, 0xd2, 0x11, 0x07, 0x3e, 0xb6, 0x3d, 0x27, 0x3e, 0xa3, 0x5e, 0x42, 0xbe, 0x94, 0x8b, 0xaa, 0xbe, 0x82, 0x49, 0x6a, 0xbe, 0x5d, 0xf7, 0x81, 0xbe, 0xae, 0x80, 0x90, 0xbe, 0x7a, 0x3b, 0x24, 0xbe, 0x6e, 0x54, 0x56, 0x3d, 0xfb, 0x3f, 0x19, 0xbe, 0x8f, 0xb3, 0xf4, 0xbd, 0xc0, 0xd5, 0x99, 0xbd, 0x40, 0x90, 0xa2, 0x3d, 0xc1, 0x8d, 0x63, 0xbe, 0x84, 0xb4, 0x0e, 0x3e, 0xe3, 0xa8, 0xe9, 0xbd, 0x45, 0xe8, 0x77, 0xbe, 0x53, 0x2d, 0x2d, 0xbe, 0x9d, 0xc6, 0x4f, 0xbe, 0x3d, 0x4b, 0x00, 0x3c, 0x72, 0xab, 0x26, 0x3e, 0x00, 0xe7, 0x83, 0x3d, 0x75, 0x2a, 0x9d, 0xbe, 0xa3, 0x17, 0xb0, 0x3d, 0xf3, 0xda, 0xbf, 0xbe, 0x0c, 0x41, 0x73, 0xbe, 0x68, 0x2d, 0x8b, 0x3d, 0xfb, 0xe3, 0x33, 0x3e, 0xe8, 0x27, 0x3b, 0xbd, 0xf8, 0x2a, 0x33, 0x3e, 0x88, 0xd2, 0x37, 0xbe, 0x19, 0x4b, 0x69, 0xbe, 0xad, 0x9b, 0xd7, 0x3d, 0x6b, 0x51, 0x03, 0xbe, 0xf2, 0x7f, 0xb7, 0xbd, 0x43, 0xbd, 0x48, 0x3d, 0x6b, 0xc8, 0x62, 0xbd, 0x79, 0x32, 0x92, 0xbe, 0x33, 0xc8, 0x14, 0x3e, 0x9b, 0xb2, 0x47, 0x3e, 0x07, 0x24, 0xc0, 0x3d, 0x90, 0xf2, 0x3f, 0xbe, 0xb3, 0xc9, 0x39, 0xbe, 0x61, 0xba, 0x55, 0xbe, 0x55, 0xd2, 0x06, 0xbd, 0x87, 0xd5, 0x51, 0x3e, 0x68, 0xcc, 0x46, 0x3e, 0x63, 0xfc, 0x82, 0xbe, 0xcf, 0x0d, 0x8a, 0xbe, 0x2b, 0x53, 0xf0, 0xbd, 0x5d, 0x6d, 0x00, 0xbe, 0xb8, 0x44, 0x48, 0xbe, 0x24, 0xda, 0xc1, 0xbc, 0x64, 0x50, 0x7d, 0xbe, 0x1b, 0x5c, 0x9a, 0xbb, 0x5a, 0x63, 0x40, 0xbd, 0x36, 0x28, 0x91, 0xbe, 0x22, 0xfe, 0xff, 0xff, 0x10, 0x00, 0x00, 0x00, 0x05, 0x00, 0x00, 0x00, 0x14, 0x00, 0x00, 0x00, 0x2c, 0x00, 0x00, 0x00, 0x02, 0x00, 0x00, 0x00, 0x20, 0x00, 0x00, 0x00, 0x20, 0x00, 0x00, 0x00, 0x17, 0x00, 0x00, 0x00, 0x73, 0x65, 0x71, 0x75, 0x65, 0x6e, 0x74, 0x69, 0x61, 0x6c, 0x2f, 0x64, 0x65, 0x6e, 0x73, 0x65, 0x2f, 0x4d, 0x61, 0x74, 0x4d, 0x75, 0x6c, 0x00, 0xa0, 0xfd, 0xff, 0xff, 0xf6, 0xfe, 0xff, 0xff, 0x04, 0x00, 0x00, 0x00, 0x0c, 0x00, 0x00, 0x00, 0x25, 0x98, 0xd5, 0x3e, 0xc4, 0x98, 0xd9, 0x3f, 0xcb, 0xae, 0x7b, 0xc0, 0x7a, 0xfe, 0xff, 0xff, 0x10, 0x00, 0x00, 0x00, 0x04, 0x00, 0x00, 0x00, 0x10, 0x00, 0x00, 0x00, 0x44, 0x00, 0x00, 0x00, 0x01, 0x00, 0x00, 0x00, 0x03, 0x00, 0x00, 0x00, 0x32, 0x00, 0x00, 0x00, 0x73, 0x65, 0x71, 0x75, 0x65, 0x6e, 0x74, 0x69, 0x61, 0x6c, 0x2f, 0x64, 0x65, 0x6e, 0x73, 0x65, 0x5f, 0x32, 0x2f, 0x42, 0x69, 0x61, 0x73, 0x41, 0x64, 0x64, 0x2f, 0x52, 0x65, 0x61, 0x64, 0x56, 0x61, 0x72, 0x69, 0x61, 0x62, 0x6c, 0x65, 0x4f, 0x70, 0x2f, 0x72, 0x65, 0x73, 0x6f, 0x75, 0x72, 0x63, 0x65, 0x00, 0x00, 0x10, 0xfe, 0xff, 0xff, 0x66, 0xff, 0xff, 0xff, 0x04, 0x00, 0x00, 0x00, 0x30, 0x00, 0x00, 0x00, 0xbd, 0xa1, 0xc0, 0xbd, 0x05, 0xc7, 0x8d, 0xbe, 0xfa, 0x0a, 0x43, 0xbd, 0xa1, 0x26, 0x18, 0xbe, 0x6f, 0xc3, 0x25, 0xbe, 0x46, 0x5c, 0x24, 0xbf, 0xa9, 0x7a, 0x21, 0xbf, 0xa2, 0x00, 0xdb, 0xbe, 0x6d, 0x27, 0x46, 0xbf, 0x7a, 0x98, 0x08, 0xbf, 0x0e, 0x82, 0xd3, 0xbd, 0xbf, 0x64, 0x18, 0xbb, 0x0e, 0xff, 0xff, 0xff, 0x10, 0x00, 0x00, 0x00, 0x03, 0x00, 0x00, 0x00, 0x10, 0x00, 0x00, 0x00, 0x48, 0x00, 0x00, 0x00, 0x01, 0x00, 0x00, 0x00, 0x0c, 0x00, 0x00, 0x00, 0x32, 0x00, 0x00, 0x00, 0x73, 0x65, 0x71, 0x75, 0x65, 0x6e, 0x74, 0x69, 0x61, 0x6c, 0x2f, 0x64, 0x65, 0x6e, 0x73, 0x65, 0x5f, 0x31, 0x2f, 0x42, 0x69, 0x61, 0x73, 0x41, 0x64, 0x64, 0x2f, 0x52, 0x65, 0x61, 0x64, 0x56, 0x61, 0x72, 0x69, 0x61, 0x62, 0x6c, 0x65, 0x4f, 0x70, 0x2f, 0x72, 0x65, 0x73, 0x6f, 0x75, 0x72, 0x63, 0x65, 0x00, 0x00, 0x04, 0x00, 0x06, 0x00, 0x04, 0x00, 0x00, 0x00, 0x00, 0x00, 0x06, 0x00, 0x08, 0x00, 0x04, 0x00, 0x06, 0x00, 0x00, 0x00, 0x04, 0x00, 0x00, 0x00, 0x80, 0x00, 0x00, 0x00, 0x79, 0x88, 0xf4, 0xbd, 0xf1, 0x1c, 0x3f, 0xbd, 0x19, 0x64, 0x04, 0xbc, 0xfc, 0xf0, 0xda, 0xbd, 0xe0, 0xcc, 0x88, 0xbd, 0xe5, 0x42, 0xa2, 0xbd, 0xf6, 0xdb, 0xd4, 0xbd, 0x38, 0x2a, 0x0e, 0xbe, 0xfe, 0xb5, 0xd9, 0xbc, 0x7f, 0x30, 0xc9, 0xbb, 0xc9, 0xd0, 0x11, 0xbe, 0x62, 0x93, 0xb9, 0xbd, 0x4f, 0x31, 0x96, 0xbd, 0x42, 0x8f, 0x23, 0xbd, 0x2e, 0xe0, 0x75, 0xbd, 0x93, 0x9d, 0xc6, 0xbd, 0xc8, 0x81, 0x98, 0x3e, 0xcd, 0x94, 0xe8, 0xbc, 0x15, 0x12, 0x0c, 0xbe, 0x15, 0xd3, 0x14, 0xbd, 0x10, 0x30, 0x76, 0xbd, 0x4a, 0xce, 0x84, 0xbd, 0x00, 0x00, 0x00, 0x00, 0x49, 0xbd, 0x6c, 0xbd, 0xc3, 0xcf, 0xa0, 0x3e, 0x27, 0x7f, 0x72, 0xbc, 0xe5, 0xe6, 0xc2, 0xbd, 0x55, 0xe8, 0xc4, 0xbd, 0x91, 0x3b, 0xdb, 0xbd, 0xce, 0x55, 0x0e, 0xbd, 0xa6, 0xa8, 0xb0, 0xbd, 0x22, 0x87, 0x9d, 0xbd, 0x00, 0x00, 0x0e, 0x00, 0x14, 0x00, 0x04, 0x00, 0x00, 0x00, 0x08, 0x00, 0x0c, 0x00, 0x10, 0x00, 0x0e, 0x00, 0x00, 0x00, 0x10, 0x00, 0x00, 0x00, 0x02, 0x00, 0x00, 0x00, 0x10, 0x00, 0x00, 0x00, 0x44, 0x00, 0x00, 0x00, 0x01, 0x00, 0x00, 0x00, 0x20, 0x00, 0x00, 0x00, 0x30, 0x00, 0x00, 0x00, 0x73, 0x65, 0x71, 0x75, 0x65, 0x6e, 0x74, 0x69, 0x61, 0x6c, 0x2f, 0x64, 0x65, 0x6e, 0x73, 0x65, 0x2f, 0x42, 0x69, 0x61, 0x73, 0x41, 0x64, 0x64, 0x2f, 0x52, 0x65, 0x61, 0x64, 0x56, 0x61, 0x72, 0x69, 0x61, 0x62, 0x6c, 0x65, 0x4f, 0x70, 0x2f, 0x72, 0x65, 0x73, 0x6f, 0x75, 0x72, 0x63, 0x65, 0x00, 0x00, 0x00, 0x00, 0xa4, 0xff, 0xff, 0xff, 0x14, 0x00, 0x18, 0x00, 0x04, 0x00, 0x00, 0x00, 0x08, 0x00, 0x0c, 0x00, 0x10, 0x00, 0x00, 0x00, 0x00, 0x00, 0x14, 0x00, 0x14, 0x00, 0x00, 0x00, 0x14, 0x00, 0x00, 0x00, 0x01, 0x00, 0x00, 0x00, 0x24, 0x00, 0x00, 0x00, 0x30, 0x00, 0x00, 0x00, 0x10, 0x00, 0x00, 0x00, 0x02, 0x00, 0x00, 0x00, 0x01, 0x00, 0x00, 0x00, 0x20, 0x00, 0x00, 0x00, 0x02, 0x00, 0x00, 0x00, 0xff, 0xff, 0xff, 0xff, 0x20, 0x00, 0x00, 0x00, 0x0b, 0x00, 0x00, 0x00, 0x64, 0x65, 0x6e, 0x73, 0x65, 0x5f, 0x69, 0x6e, 0x70, 0x75, 0x74, 0x00, 0xfc, 0xff, 0xff, 0xff, 0x04, 0x00, 0x04, 0x00, 0x04, 0x00, 0x00, 0x00};
const int model_data_len = 7740;