
#ifdef __has_attribute
#define HAVE_ATTRIBUTE(x) __has_attribute(x)
#else
#define HAVE_ATTRIBUTE(x) 0
#endif
#if HAVE_ATTRIBUTE(aligned) || (defined(__GNUC__) && !defined(__clang__))
#define DATA_ALIGN_ATTRIBUTE __attribute__((aligned(4)))
#else
#define DATA_ALIGN_ATTRIBUTE
#endif

const unsigned char model_data[] DATA_ALIGN_ATTRIBUTE = {0x1c, 0x00, 0x00, 0x00, 0x54, 0x46, 0x4c, 0x33, 0x00, 0x00, 0x12, 0x00, 0x1c, 0x00, 0x04, 0x00, 0x08, 0x00, 0x0c, 0x00, 0x10, 0x00, 0x14, 0x00, 0x00, 0x00, 0x18, 0x00, 0x12, 0x00, 0x00, 0x00, 0x03, 0x00, 0x00, 0x00, 0x14, 0x00, 0x00, 0x00, 0x1c, 0x00, 0x00, 0x00, 0xa8, 0x00, 0x00, 0x00, 0x1c, 0x00, 0x00, 0x00, 0x50, 0x00, 0x00, 0x00, 0x02, 0x00, 0x00, 0x00, 0x4c, 0x03, 0x00, 0x00, 0x6c, 0x01, 0x00, 0x00, 0x01, 0x00, 0x00, 0x00, 0xb0, 0x00, 0x00, 0x00, 0x0d, 0x00, 0x00, 0x00, 0x88, 0x1d, 0x00, 0x00, 0x84, 0x1d, 0x00, 0x00, 0x30, 0x1c, 0x00, 0x00, 0x8c, 0x1b, 0x00, 0x00, 0x18, 0x1b, 0x00, 0x00, 0xc8, 0x0a, 0x00, 0x00, 0x74, 0x04, 0x00, 0x00, 0x90, 0x03, 0x00, 0x00, 0x68, 0x1d, 0x00, 0x00, 0x64, 0x1d, 0x00, 0x00, 0x60, 0x1d, 0x00, 0x00, 0x5c, 0x1d, 0x00, 0x00, 0x38, 0x00, 0x00, 0x00, 0x01, 0x00, 0x00, 0x00, 0x0c, 0x00, 0x00, 0x00, 0x08, 0x00, 0x0c, 0x00, 0x04, 0x00, 0x08, 0x00, 0x08, 0x00, 0x00, 0x00, 0x08, 0x00, 0x00, 0x00, 0x0c, 0x00, 0x00, 0x00, 0x13, 0x00, 0x00, 0x00, 0x6d, 0x69, 0x6e, 0x5f, 0x72, 0x75, 0x6e, 0x74, 0x69, 0x6d, 0x65, 0x5f, 0x76, 0x65, 0x72, 0x73, 0x69, 0x6f, 0x6e, 0x00, 0x36, 0xe4, 0xff, 0xff, 0x04, 0x00, 0x00, 0x00, 0x10, 0x00, 0x00, 0x00, 0x31, 0x2e, 0x35, 0x2e, 0x30, 0x00, 0x00, 0x00, 0x00, 0x00, 0x00, 0x00, 0x00, 0x00, 0x00, 0x00, 0x0f, 0x00, 0x00, 0x00, 0x4d, 0x4c, 0x49, 0x52, 0x20, 0x43, 0x6f, 0x6e, 0x76, 0x65, 0x72, 0x74, 0x65, 0x64, 0x2e, 0x00, 0x00, 0x00, 0x0e, 0x00, 0x18, 0x00, 0x04, 0x00, 0x08, 0x00, 0x0c, 0x00, 0x10, 0x00, 0x14, 0x00, 0x0e, 0x00, 0x00, 0x00, 0x14, 0x00, 0x00, 0x00, 0x40, 0x00, 0x00, 0x00, 0x44, 0x00, 0x00, 0x00, 0x48, 0x00, 0x00, 0x00, 0x58, 0x00, 0x00, 0x00, 0x0b, 0x00, 0x00, 0x00, 0x7c, 0x1c, 0x00, 0x00, 0x0c, 0x1c, 0x00, 0x00, 0x08, 0x1b, 0x00, 0x00, 0x70, 0x1a, 0x00, 0x00, 0x14, 0x1a, 0x00, 0x00, 0xc0, 0x09, 0x00, 0x00, 0x6c, 0x03, 0x00, 0x00, 0x64, 0x02, 0x00, 0x00, 0x90, 0x01, 0x00, 0x00, 0xf4, 0x00, 0x00, 0x00, 0x7c, 0x00, 0x00, 0x00, 0x01, 0x00, 0x00, 0x00, 0x00, 0x00, 0x00, 0x00, 0x01, 0x00, 0x00, 0x00, 0x0a, 0x00, 0x00, 0x00, 0x04, 0x00, 0x00, 0x00, 0xec, 0x01, 0x00, 0x00, 0x38, 0x01, 0x00, 0x00, 0xa0, 0x00, 0x00, 0x00, 0x1c, 0x00, 0x00, 0x00, 0x04, 0x00, 0x00, 0x00, 0x6d, 0x61, 0x69, 0x6e, 0x00, 0x00, 0x0e, 0x00, 0x18, 0x00, 0x08, 0x00, 0x0c, 0x00, 0x10, 0x00, 0x07, 0x00, 0x14, 0x00, 0x0e, 0x00, 0x00, 0x00, 0x00, 0x00, 0x00, 0x09, 0x01, 0x00, 0x00, 0x00, 0x1c, 0x00, 0x00, 0x00, 0x10, 0x00, 0x00, 0x00, 0x04, 0x00, 0x00, 0x00, 0x12, 0xe5, 0xff, 0xff, 0x00, 0x00, 0x80, 0x3f, 0x01, 0x00, 0x00, 0x00, 0x0a, 0x00, 0x00, 0x00, 0x01, 0x00, 0x00, 0x00, 0x09, 0x00, 0x00, 0x00, 0x2e, 0xfe, 0xff, 0xff, 0x00, 0x00, 0x00, 0x19, 0x01, 0x00, 0x00, 0x00, 0x3c, 0xe4, 0xff, 0xff, 0x14, 0x00, 0x00, 0x00, 0x0b, 0x00, 0x00, 0x00, 0x24, 0x00, 0x00, 0x00, 0x30, 0x00, 0x00, 0x00, 0x10, 0x00, 0x00, 0x00, 0x02, 0x00, 0x00, 0x00, 0x01, 0x00, 0x00, 0x00, 0x03, 0x00, 0x00, 0x00, 0x02, 0x00, 0x00, 0x00, 0xff, 0xff, 0xff, 0xff, 0x03, 0x00, 0x00, 0x00, 0x08, 0x00, 0x00, 0x00, 0x49, 0x64, 0x65, 0x6e, 0x74, 0x69, 0x74, 0x79, 0x00, 0x00, 0x00, 0x00, 0x24, 0xe4, 0xff, 0xff, 0x7a, 0xff, 0xff, 0xff, 0x00, 0x00, 0x00, 0x08, 0x18, 0x00, 0x00, 0x00, 0x0c, 0x00, 0x00, 0x00, 0x04, 0x00, 0x00, 0x00, 0x3c, 0xe4, 0xff, 0xff, 0x01, 0x00, 0x00, 0x00, 0x09, 0x00, 0x00, 0x00, 0x03, 0x00, 0x00, 0x00, 0x08, 0x00, 0x00, 0x00, 0x06, 0x00, 0x00, 0x00, 0x03, 0x00, 0x00, 0x00, 0xb0, 0xe4, 0xff, 0xff, 0x14, 0x00, 0x00, 0x00, 0x0a, 0x00, 0x00, 0x00, 0x24, 0x00, 0x00, 0x00, 0x40, 0x00, 0x00, 0x00, 0x10, 0x00, 0x00, 0x00, 0x02, 0x00, 0x00, 0x00, 0x01, 0x00, 0x00, 0x00, 0x03, 0x00, 0x00, 0x00, 0x02, 0x00, 0x00, 0x00, 0xff, 0xff, 0xff, 0xff, 0x03, 0x00, 0x00, 0x00, 0x1a, 0x00, 0x00, 0x00, 0x73, 0x65, 0x71, 0x75, 0x65, 0x6e, 0x74, 0x69, 0x61, 0x6c, 0x2f, 0x64, 0x65, 0x6e, 0x73, 0x65, 0x5f, 0x32, 0x2f, 0x42, 0x69, 0x61, 0x73, 0x41, 0x64, 0x64, 0x00, 0x00, 0x04, 0xe6, 0xff, 0xff, 0x00, 0x00, 0x0e, 0x00, 0x14, 0x00, 0x00, 0x00, 0x08, 0x00, 0x0c, 0x00, 0x07, 0x00, 0x10, 0x00, 0x0e, 0x00, 0x00, 0x00, 0x00, 0x00, 0x00, 0x08, 0x1c, 0x00, 0x00, 0x00, 0x10, 0x00, 0x00, 0x00, 0x04, 0x00, 0x00, 0x00, 0x4e, 0xff, 0xff, 0xff, 0x00, 0x00, 0x00, 0x01, 0x01, 0x00, 0x00, 0x00, 0x08, 0x00, 0x00, 0x00, 0x03, 0x00, 0x00, 0x00, 0x07, 0x00, 0x00, 0x00, 0x05, 0x00, 0x00, 0x00, 0x02, 0x00, 0x00, 0x00, 0x48, 0xe5, 0xff, 0xff, 0x14, 0x00, 0x00, 0x00, 0x09, 0x00, 0x00, 0x00, 0x24, 0x00, 0x00, 0x00, 0x58, 0x00, 0x00, 0x00, 0x10, 0x00, 0x00, 0x00, 0x02, 0x00, 0x00, 0x00, 0x01, 0x00, 0x00, 0x00, 0x0c, 0x00, 0x00, 0x00, 0x02, 0x00, 0x00, 0x00, 0xff, 0xff, 0xff, 0xff, 0x0c, 0x00, 0x00, 0x00, 0x32, 0x00, 0x00, 0x00, 0x73, 0x65, 0x71, 0x75, 0x65, 0x6e, 0x74, 0x69, 0x61, 0x6c, 0x2f, 0x64, 0x65, 0x6e, 0x73, 0x65, 0x5f, 0x31, 0x2f, 0x52, 0x65, 0x6c, 0x75, 0x3b, 0x73, 0x65, 0x71, 0x75, 0x65, 0x6e, 0x74, 0x69, 0x61, 0x6c, 0x2f, 0x64, 0x65, 0x6e, 0x73, 0x65, 0x5f, 0x31, 0x2f, 0x42, 0x69, 0x61, 0x73, 0x41, 0x64, 0x64, 0x00, 0x00, 0xb4, 0xe6, 0xff, 0xff, 0x00, 0x00, 0x0e, 0x00, 0x16, 0x00, 0x00, 0x00, 0x08, 0x00, 0x0c, 0x00, 0x07, 0x00, 0x10, 0x00, 0x0e, 0x00, 0x00, 0x00, 0x00, 0x00, 0x00, 0x08, 0x24, 0x00, 0x00, 0x00, 0x18, 0x00, 0x00, 0x00, 0x0c, 0x00, 0x00, 0x00, 0x00, 0x00, 0x06, 0x00, 0x08, 0x00, 0x07, 0x00, 0x06, 0x00, 0x00, 0x00, 0x00, 0x00, 0x00, 0x01, 0x01, 0x00, 0x00, 0x00, 0x07, 0x00, 0x00, 0x00, 0x03, 0x00, 0x00, 0x00, 0x00, 0x00, 0x00, 0x00, 0x04, 0x00, 0x00, 0x00, 0x01, 0x00, 0x00, 0x00, 0x00, 0x00, 0x0a, 0x00, 0x0c, 0x00, 0x07, 0x00, 0x00, 0x00, 0x08, 0x00, 0x0a, 0x00, 0x00, 0x00, 0x00, 0x00, 0x00, 0x09, 0x01, 0x00, 0x00, 0x00, 0x18, 0xe6, 0xff, 0xff, 0x14, 0x00, 0x00, 0x00, 0x08, 0x00, 0x00, 0x00, 0x24, 0x00, 0x00, 0x00, 0x54, 0x00, 0x00, 0x00, 0x10, 0x00, 0x00, 0x00, 0x02, 0x00, 0x00, 0x00, 0x01, 0x00, 0x00, 0x00, 0x20, 0x00, 0x00, 0x00, 0x02, 0x00, 0x00, 0x00, 0xff, 0xff, 0xff, 0xff, 0x20, 0x00, 0x00, 0x00, 0x2e, 0x00, 0x00, 0x00, 0x73, 0x65, 0x71, 0x75, 0x65, 0x6e, 0x74, 0x69, 0x61, 0x6c, 0x2f, 0x64, 0x65, 0x6e, 0x73, 0x65, 0x2f, 0x52, 0x65, 0x6c, 0x75, 0x3b, 0x73, 0x65, 0x71, 0x75, 0x65, 0x6e, 0x74, 0x69, 0x61, 0x6c, 0x2f, 0x64, 0x65, 0x6e, 0x73, 0x65, 0x2f, 0x42, 0x69, 0x61, 0x73, 0x41, 0x64, 0x64, 0x00, 0x00, 0x24, 0xe6, 0xff, 0xff, 0x7a, 0xe7, 0xff, 0xff, 0x04, 0x00, 0x00, 0x00, 0x90, 0x00, 0x00, 0x00, 0x32, 0x39, 0x11, 0x3d, 0x1e, 0x80, 0xe0, 0xbd, 0xe8, 0x5b, 0xe0, 0xbe, 0x54, 0x1d, 0xb0, 0xbd, 0x3e, 0xd4, 0xbf, 0x3e, 0x1d, 0xeb, 0x38, 0x3e, 0x90, 0x4f, 0x7a, 0xbe, 0x73, 0x7c, 0xb1, 0xbe, 0xc0, 0xa6, 0x34, 0x3e, 0xd1, 0x12, 0xb8, 0xbe, 0xd6, 0xde, 0x74, 0xbe, 0x4b, 0x16, 0x02, 0x3f, 0xa9, 0x42, 0xd7, 0x3d, 0xc7, 0x5d, 0x48, 0xbf, 0x80, 0xff, 0x2c, 0xbf, 0x71, 0x03, 0xcd, 0xbe, 0x42, 0x38, 0xdc, 0xbe, 0xb3, 0x30, 0xc7, 0x3e, 0xdd, 0x6a, 0x0b, 0x3e, 0x6e, 0x23, 0x88, 0x3e, 0xb7, 0xfc, 0xa2, 0x3e, 0xca, 0xed, 0x88, 0xbf, 0x39, 0x56, 0x09, 0xbf, 0xb6, 0x2a, 0x88, 0xbd, 0xde, 0x88, 0x87, 0xbe, 0xe8, 0x32, 0xb6, 0xbd, 0x2b, 0x32, 0xb2, 0xbe, 0x7a, 0x4a, 0xe4, 0xbd, 0x26, 0x53, 0xc5, 0x3e, 0x5e, 0x15, 0xd4, 0x3e, 0x2b, 0x6c, 0x29, 0x3e, 0xe0, 0x49, 0xa8, 0xbe, 0xe9, 0xca, 0xb7, 0x3e, 0x99, 0xe0, 0xb0, 0xbe, 0x5b, 0x60, 0xe8, 0xbd, 0x85, 0x22, 0x18, 0x3f, 0x82, 0xe7, 0xff, 0xff, 0x10, 0x00, 0x00, 0x00, 0x07, 0x00, 0x00, 0x00, 0x14, 0x00, 0x00, 0x00, 0x30, 0x00, 0x00, 0x00, 0x02, 0x00, 0x00, 0x00, 0x03, 0x00, 0x00, 0x00, 0x0c, 0x00, 0x00, 0x00, 0x19, 0x00, 0x00, 0x00, 0x73, 0x65, 0x71, 0x75, 0x65, 0x6e, 0x74, 0x69, 0x61, 0x6c, 0x2f, 0x64, 0x65, 0x6e, 0x73, 0x65, 0x5f, 0x32, 0x2f, 0x4d, 0x61, 0x74, 0x4d, 0x75, 0x6c, 0x00, 0x00, 0x00, 0x04, 0xe7, 0xff, 0xff, 0x5a, 0xe8, 0xff, 0xff, 0x04, 0x00, 0x00, 0x00, 0x00, 0x06, 0x00, 0x00, 0xbb, 0xc2, 0x91, 0xb9, 0x48, 0x81, 0x98, 0xbe, 0x4d, 0x2c, 0x9a, 0x3e, 0xd2, 0x2d, 0x03, 0xbe, 0x69, 0xe3, 0xc9, 0xbd, 0x35, 0xd0, 0xbf, 0xbe, 0xe3, 0xc8, 0xcd, 0xbd, 0x86, 0x29, 0x8b, 0x3d, 0x83, 0xfc, 0x85, 0x3e, 0x94, 0x6b, 0x5b, 0x3e, 0xff, 0xeb, 0x77, 0xbe, 0x5c, 0xed, 0x55, 0xbe, 0x68, 0xae, 0x27, 0xbd, 0xbf, 0xf8, 0x80, 0xbe, 0x19, 0x8c, 0x7d, 0xbe, 0x8b, 0x25, 0xf7, 0xbd, 0x8f, 0x7c, 0xfc, 0xbc, 0xd0, 0xd0, 0x84, 0xbe, 0xb1, 0x4c, 0x41, 0xbd, 0x5f, 0xf8, 0xb7, 0x3d, 0x6a, 0xdb, 0xc5, 0xbe, 0x3c, 0xac, 0x38, 0xbd, 0xbc, 0xfd, 0x85, 0xbe, 0x6b, 0xf9, 0x68, 0x3e, 0xbb, 0xd7, 0x88, 0xbe, 0xf2, 0xaf, 0x76, 0xbe, 0xca, 0xd9, 0x3f, 0x3d, 0x45, 0x16, 0xab, 0xbe, 0xaf, 0x06, 0x89, 0x3e, 0x6f, 0xb9, 0xb1, 0xbe, 0x2d, 0x7b, 0x9f, 0x3d, 0xdd, 0xb3, 0xd5, 0x3d, 0x92, 0x02, 0xfd, 0x3d, 0x57, 0x13, 0x9b, 0xbb, 0x01, 0x65, 0xa3, 0x3d, 0x6e, 0xb1, 0xa1, 0x3e, 0xbe, 0x5c, 0xb5, 0x3e, 0x8c, 0x65, 0x2b, 0x3e, 0x10, 0x3c, 0x1b, 0x3d, 0x0e, 0x03, 0x21, 0x3e, 0x26, 0xd9, 0x1c, 0x3e, 0x4e, 0x66, 0x6e, 0xbe, 0xa1, 0x9e, 0x85, 0x3e, 0xb9, 0xb8, 0xa1, 0x3e, 0x9c, 0xf9, 0x36, 0xbe, 0x55, 0xe5, 0x59, 0x3d, 0xf8, 0x67, 0x9e, 0x3e, 0x68, 0x13, 0xd3, 0x3d, 0xd3, 0x1d, 0x6a, 0x3c, 0xf4, 0x1d, 0x0a, 0x3c, 0x11, 0x44, 0x69, 0xbe, 0x2c, 0x3d, 0x26, 0x3d, 0xdf, 0x3c, 0xd9, 0x3c, 0xf9, 0x5d, 0x27, 0x3e, 0x00, 0xae, 0xda, 0x3a, 0x84, 0xe3, 0xc5, 0xbd, 0x78, 0x65, 0x42, 0x3d, 0x58, 0x66, 0x4f, 0xbe, 0x18, 0x23, 0x61, 0xbe, 0x64, 0xe4, 0x36, 0xbe, 0xb5, 0x1a, 0x40, 0xbe, 0xa4, 0xf7, 0x1e, 0xbe, 0xcf, 0xbb, 0x80, 0x3e, 0xb3, 0x06, 0xbe, 0x3d, 0xa8, 0x26, 0xd2, 0x3e, 0xa1, 0x0b, 0x43, 0x3e, 0x84, 0xd0, 0xa7, 0x3d, 0xa8, 0x32, 0x01, 0x3d, 0x31, 0xe3, 0x26, 0xbe, 0x92, 0x2d, 0xc4, 0x3e, 0x6c, 0x8c, 0xd8, 0x3d, 0xde, 0xbf, 0x8b, 0x3e, 0x51, 0xbc, 0x92, 0xbe, 0x1e, 0x5c, 0x79, 0xbe, 0x9e, 0x27, 0xfc, 0x3d, 0x39, 0xe2, 0x9a, 0x3d, 0x38, 0x6c, 0xca, 0xbc, 0xfb, 0xea, 0xdc, 0x3e, 0x26, 0xe8, 0x87, 0xbd, 0xbd, 0x0b, 0xf8, 0xbc, 0x3f, 0x9e, 0xca, 0xbc, 0xa7, 0x66, 0xdd, 0x3d, 0xb3, 0xb0, 0xc0, 0x3e, 0xe5, 0x06, 0x79, 0x3e, 0x40, 0xc6, 0x3c, 0x3e, 0x26, 0xfa, 0x99, 0x3d, 0x00, 0x5a, 0x1b, 0x3a, 0x97, 0x52, 0x72, 0xbc, 0x1c, 0xbe, 0x01, 0x3d, 0x57, 0x94, 0x55, 0x3e, 0x85, 0xde, 0x15, 0xbe, 0xef, 0x10, 0x50, 0xbe, 0xf1, 0x99, 0x08, 0xbd, 0x8d, 0x90, 0xba, 0xbe, 0xb6, 0x5a, 0x3b, 0x3d, 0xd5, 0x4d, 0xf3, 0xb9, 0xf7, 0x23, 0x89, 0xbe, 0xf8, 0x53, 0x52, 0x3e, 0xfe, 0xa8, 0x72, 0x3e, 0x86, 0xdf, 0xc3, 0xbd, 0xea, 0xb2, 0xa9, 0xbe, 0xf9, 0xb5, 0xa1, 0xbe, 0xa6, 0x43, 0x96, 0xbd, 0x01, 0x24, 0x7c, 0xbe, 0x61, 0xe2, 0xa2, 0x3e, 0xaf, 0x72, 0xf4, 0xbc, 0xf3, 0xf6, 0x71, 0xbd, 0x15, 0x73, 0xff, 0xbc, 0x56, 0x09, 0xb4, 0xbc, 0x63, 0xb8, 0xa7, 0xbd, 0x6b, 0xf6, 0x13, 0xbd, 0x75, 0x9d, 0xb3, 0xbe, 0x12, 0x64, 0x86, 0x3d, 0xc6, 0x64, 0x74, 0xbe, 0x57, 0x43, 0xfa, 0x3d, 0xf5, 0xaf, 0x61, 0xbd, 0x67, 0xc1, 0x1b, 0xbe, 0xb2, 0x91, 0x1e, 0xbe, 0x50, 0xb4, 0xfc, 0x3d, 0xb1, 0x19, 0x3a, 0x3d, 0xe3, 0x33, 0x97, 0xbc, 0x14, 0xf7, 0x0f, 0x3b, 0xb4, 0xd9, 0xcc, 0x3c, 0xe2, 0xac, 0xb4, 0xbc, 0x77, 0x4d, 0x8f, 0x3e, 0xc1, 0xba, 0x9e, 0x3e, 0xfe, 0x22, 0x73, 0xbd, 0x85, 0x0a, 0x69, 0x3e, 0xbb, 0x74, 0x25, 0x3e, 0x5c, 0x39, 0x12, 0xbe, 0x17, 0x56, 0x73, 0x3e, 0x49, 0xe9, 0xa2, 0xbb, 0x63, 0xbe, 0x03, 0xbe, 0xe7, 0x08, 0xbf, 0x3e, 0xb8, 0x89, 0xb0, 0x3d, 0x33, 0x25, 0x21, 0x3e, 0x1b, 0xf2, 0x29, 0xbd, 0xf1, 0x11, 0xa9, 0xbe, 0x38, 0x50, 0x85, 0x3e, 0x21, 0x5d, 0xb5, 0x3e, 0xbc, 0x97, 0x59, 0x3e, 0xd6, 0xef, 0xb6, 0x3d, 0x35, 0x82, 0x21, 0xbe, 0x05, 0xb3, 0x47, 0xbe, 0x16, 0xe2, 0x81, 0x3c, 0x9a, 0x69, 0x90, 0xbd, 0x8d, 0xd1, 0x20, 0x3d, 0x3a, 0x9b, 0xfa, 0x3d, 0xce, 0xa4, 0xd1, 0x3e, 0xaa, 0xc8, 0xd0, 0x3d, 0x0e, 0x89, 0x5f, 0x3e, 0x3a, 0x4b, 0x4b, 0x3e, 0x95, 0xec, 0xe4, 0x3c, 0xc4, 0xe8, 0xdf, 0xbd, 0x2a, 0xde, 0x73, 0xbd, 0xc1, 0x9b, 0x90, 0xbe, 0x7b, 0x7b, 0xe3, 0xbd, 0xac, 0xcc, 0x3e, 0xbe, 0xea, 0x7c, 0x26, 0x3e, 0xb7, 0x7a, 0x9e, 0x3d, 0x0e, 0x7d, 0x77, 0x3e, 0x7e, 0x18, 0x3f, 0xbe, 0x9f, 0x12, 0x94, 0x3e, 0x59, 0x1b, 0xa7, 0x3d, 0x45, 0x2a, 0xa1, 0x3d, 0x3b, 0x66, 0x22, 0x3e, 0xeb, 0xf8, 0x63, 0xbe, 0xc2, 0xac, 0x33, 0x3e, 0x02, 0x0e, 0x01, 0xbe, 0xd3, 0x9c, 0x5e, 0xbd, 0xa4, 0xf4, 0x55, 0xbc, 0x06, 0x74, 0xc4, 0x3d, 0x87, 0x66, 0x66, 0xbe, 0x3d, 0xc7, 0x1f, 0xbe, 0xad, 0xe2, 0x94, 0x3e, 0x92, 0x53, 0xb8, 0xbd, 0x11, 0x50, 0x5d, 0xbe, 0x29, 0xeb, 0x4f, 0x3e, 0xa4, 0x1c, 0x92, 0x3e, 0xde, 0x78, 0x7d, 0xbe, 0xce, 0x58, 0xba, 0x3d, 0x3e, 0xd0, 0x20, 0x3e, 0x93, 0x75, 0x64, 0xbe, 0x38, 0x9c, 0x3d, 0x3e, 0x1e, 0x73, 0x72, 0xbe, 0xcf, 0x6d, 0xfc, 0xbc, 0xe7, 0xc2, 0x82, 0x3d, 0xd8, 0x45, 0xcd, 0xbe, 0x2d, 0x37, 0xa7, 0x3d, 0x6b, 0xad, 0x36, 0xbe, 0x90, 0x3d, 0x25, 0x3d, 0x0a, 0xf2, 0xc2, 0xbd, 0x73, 0x23, 0x8d, 0x3e, 0xb5, 0xf0, 0x00, 0xbc, 0x59, 0xdc, 0xb7, 0xbe, 0x28, 0xff, 0x6b, 0xbe, 0x8e, 0x29, 0x7e, 0xbe, 0xab, 0x49, 0x15, 0x3d, 0xf4, 0x66, 0x63, 0xbe, 0xf0, 0x5e, 0x90, 0xbd, 0xdb, 0xde, 0x16, 0xbd, 0x45, 0x4f, 0x81, 0xbe, 0xbc, 0xab, 0xae, 0x3e, 0xf6, 0x80, 0x88, 0x3e, 0x7c, 0x19, 0xc0, 0xbd, 0x11, 0x1b, 0x6e, 0x3e, 0x06, 0xad, 0xb3, 0x3e, 0xf2, 0xcc, 0x9a, 0xbd, 0x0b, 0x3b, 0x7b, 0xbd, 0x80, 0x89, 0x98, 0xbe, 0xa1, 0xa3, 0x83, 0x3e, 0xe8, 0x2e, 0x1f, 0xbe, 0x14, 0xde, 0x9a, 0xbe, 0x47, 0x56, 0x48, 0xbe, 0xcd, 0xef, 0x07, 0xbe, 0x15, 0x98, 0xb7, 0xbe, 0xec, 0x92, 0x0e, 0xbe, 0x40, 0xd4, 0x02, 0xbe, 0xed, 0xbe, 0xee, 0xbb, 0x59, 0x00, 0xcb, 0x3d, 0x1e, 0x4c, 0x10, 0x3e, 0x9b, 0x2d, 0xcb, 0xbd, 0xbe, 0xab, 0x7a, 0xbe, 0xd4, 0xa3, 0x5d, 0x3e, 0x0f, 0x50, 0xca, 0x3d, 0x98, 0x71, 0x84, 0x3e, 0x00, 0x61, 0xba, 0xba, 0xa6, 0xa1, 0x68, 0xbe, 0x49, 0xf4, 0x33, 0x3e, 0x96, 0x26, 0xb0, 0xbd, 0x06, 0x48, 0x92, 0xbe, 0x69, 0xaf, 0x73, 0xbe, 0xa6, 0x10, 0x49, 0x3e, 0x2b, 0xd0, 0x3a, 0xbd, 0xa1, 0x98, 0xab, 0xbe, 0x70, 0x8a, 0xa8, 0x3b, 0x5d, 0xfd, 0x0d, 0xbe, 0xef, 0x71, 0x86, 0x3d, 0xd4, 0x98, 0x67, 0xbe, 0xa5, 0x32, 0xc3, 0xbe, 0x88, 0xc3, 0xcb, 0xbe, 0x02, 0x06, 0x63, 0x3d, 0xe1, 0xf9, 0x8f, 0x3d, 0x49, 0xc1, 0x0a, 0x3e, 0x34, 0x52, 0x5f, 0x3d, 0xd5, 0x00, 0x3b, 0xbe, 0x1f, 0xc5, 0x16, 0xbe, 0xc1, 0xc7, 0x77, 0xbe, 0xc6, 0xd2, 0xab, 0xbe, 0xf1, 0x96, 0x10, 0x3e, 0x35, 0x53, 0x47, 0x3d, 0x42, 0x8b, 0xa6, 0xbe, 0x4f, 0x14, 0x8e, 0xbe, 0x70, 0x08, 0x0d, 0xbe, 0x94, 0x7b, 0x6f, 0xbd, 0x9a, 0xd5, 0xaa, 0x3e, 0x63, 0xc5, 0xc7, 0xbd, 0x7d, 0xd8, 0x95, 0xbe, 0x38, 0xfe, 0x62, 0x3d, 0xbe, 0xff, 0x99, 0x3e, 0x53, 0x6c, 0x32, 0x3d, 0x8a, 0x97, 0x83, 0x3d, 0x68, 0x68, 0x99, 0xbe, 0xbd, 0xd3, 0x6c, 0x3e, 0xcb, 0x2d, 0xab, 0x3d, 0x62, 0xfd, 0xc5, 0xbe, 0x69, 0x77, 0x66, 0x3e, 0x08, 0xc3, 0xae, 0xbd, 0x0a, 0x62, 0xbe, 0x3b, 0x52, 0x80, 0x36, 0xbe, 0x02, 0xe8, 0x94, 0xbe, 0x6e, 0x2e, 0x96, 0xbe, 0x54, 0x7e, 0x30, 0xba, 0xd8, 0x53, 0x82, 0xbe, 0x47, 0x2e, 0xbc, 0x3e, 0x6e, 0xad, 0x5f, 0xbe, 0x17, 0x5e, 0xb6, 0x3d, 0x6c, 0x50, 0xb2, 0xbe, 0x19, 0x75, 0xa8, 0x3e, 0x9c, 0x0d, 0xc0, 0xbe, 0x7c, 0x91, 0x4e, 0xbe, 0x50, 0xd0, 0x3a, 0xbe, 0x55, 0x04, 0x79, 0x3e, 0xd2, 0x66, 0xdb, 0x3d, 0xbe, 0x9d, 0x0f, 0xbe, 0xc6, 0x78, 0x09, 0xbb, 0x03, 0x6b, 0xef, 0xbd, 0xd0, 0x5f, 0xa0, 0x3d, 0x12, 0xbb, 0x41, 0x3e, 0x43, 0x77, 0x89, 0xbe, 0x12, 0x61, 0x0c, 0x3e, 0x27, 0x7d, 0x88, 0xbe, 0x5e, 0x98, 0x00, 0x3e, 0xbe, 0xb7, 0x7f, 0x3e, 0x5a, 0xdb, 0xda, 0x3d, 0x23, 0xbb, 0x1a, 0xbe, 0xf6, 0x8b, 0x45, 0x3d, 0xa2, 0xcd, 0xaf, 0xbd, 0x0e, 0x44, 0x7b, 0x3e, 0x27, 0x32, 0xc8, 0x3d, 0x5d, 0x53, 0xba, 0x3e, 0x26, 0x5c, 0xff, 0x3d, 0x8b, 0xbb, 0x9b, 0x3e, 0xda, 0x10, 0x0c, 0xbd, 0xe7, 0x6f, 0x75, 0x3c, 0xc2, 0x20, 0x19, 0xbe, 0xbf, 0xb1, 0xed, 0x3e, 0x62, 0x56, 0x7f, 0xbe, 0x4a, 0xf9, 0x99, 0x3e, 0x0e, 0xa3, 0x9a, 0x3e, 0xab, 0x78, 0x83, 0x3e, 0x94, 0x68, 0x05, 0xbe, 0x53, 0x2a, 0x39, 0x3d, 0x3a, 0x9e, 0x8c, 0x3e, 0x43, 0xda, 0x1c, 0xbd, 0x49, 0x5e, 0x7a, 0xbe, 0x79, 0x3e, 0x27, 0xbe, 0xc7, 0xb8, 0x43, 0xbe, 0xef, 0x43, 0xb2, 0xbe, 0xf3, 0xb9, 0x9f, 0x3e, 0xdb, 0x2d, 0x57, 0x3c, 0xa8, 0x3d, 0x64, 0x3d, 0x26, 0xb3, 0x4c, 0x3e, 0x1a, 0x1f, 0x80, 0x3d, 0x7b, 0x25, 0x6c, 0xbe, 0xd2, 0xf7, 0x31, 0xbd, 0xdd, 0xcf, 0x7e, 0x3e, 0x13, 0x6c, 0x3b, 0x3d, 0x3c, 0x26, 0xaa, 0x3e, 0xb6, 0x71, 0x03, 0xbe, 0xd0, 0xfe, 0xc7, 0x3e, 0xfb, 0x5e, 0x88, 0x3d, 0x64, 0x50, 0xc4, 0x3e, 0xb9, 0xb1, 0xa5, 0x3e, 0x20, 0xb5, 0x0e, 0xbe, 0x82, 0xc0, 0x52, 0xbe, 0x11, 0x0a, 0x73, 0xbc, 0xa6, 0xbb, 0x40, 0xbc, 0xe1, 0xcd, 0x69, 0xbd, 0xdb, 0xf6, 0xab, 0x3d, 0x69, 0x44, 0x5d, 0x3e, 0xe0, 0xf4, 0xf1, 0x3e, 0xca, 0x5d, 0x55, 0x3e, 0xc1, 0xa2, 0x88, 0x3c, 0xc6, 0x0e, 0xd8, 0xbb, 0x67, 0x7e, 0xcd, 0xbc, 0x91, 0x0f, 0x2e, 0xbe, 0xb1, 0xd7, 0xe5, 0xbb, 0x44, 0xec, 0x16, 0x3e, 0x56, 0x39, 0x94, 0xbe, 0xe4, 0xaa, 0x96, 0x3e, 0x15, 0x97, 0xb1, 0xbd, 0x3e, 0xb6, 0xaf, 0x3e, 0x94, 0x5c, 0xc1, 0x3e, 0xe9, 0x7f, 0x96, 0x3e, 0x4f, 0x0e, 0xaa, 0x3e, 0x70, 0xde, 0x88, 0x3a, 0xf8, 0x4f, 0xd2, 0x3c, 0x4b, 0xa2, 0x8d, 0x3c, 0xa2, 0x21, 0x89, 0x3e, 0xa7, 0xcb, 0x50, 0xbe, 0xf2, 0xff, 0x14, 0xbd, 0xf3, 0x01, 0x20, 0x3e, 0x4f, 0xda, 0xa2, 0x3e, 0x49, 0x90, 0xa2, 0xbc, 0x00, 0xc6, 0xa0, 0x3e, 0xde, 0x5c, 0xa0, 0x3e, 0xff, 0x9c, 0x89, 0x3d, 0x12, 0x5e, 0x41, 0xbc, 0x18, 0x4e, 0x2e, 0xbe, 0xea, 0x8b, 0x82, 0x3e, 0x1e, 0x70, 0x70, 0xbe, 0x33, 0x9a, 0x19, 0x3f, 0xab, 0x00, 0x7f, 0x3e, 0xf4, 0xbc, 0x90, 0xbd, 0xda, 0xb4, 0x8d, 0xbe, 0xb9, 0x02, 0x6d, 0xbb, 0xd2, 0x5a, 0x6d, 0x3e, 0x1b, 0xa3, 0x6d, 0xbe, 0xd2, 0x0c, 0x46, 0xbe, 0x73, 0xb6, 0x89, 0xbe, 0x2d, 0x0b, 0x87, 0xbe, 0x8e, 0x43, 0x5d, 0x3e, 0x07, 0x15, 0xb8, 0x3e, 0xd2, 0xed, 0xff, 0xff, 0x10, 0x00, 0x00, 0x00, 0x06, 0x00, 0x00, 0x00, 0x14, 0x00, 0x00, 0x00, 0x30, 0x00, 0x00, 0x00, 0x02, 0x00, 0x00, 0x00, 0x0c, 0x00, 0x00, 0x00, 0x20, 0x00, 0x00, 0x00, 0x19, 0x00, 0x00, 0x00, 0x73, 0x65, 0x71, 0x75, 0x65, 0x6e, 0x74, 0x69, 0x61, 0x6c, 0x2f, 0x64, 0x65, 0x6e, 0x73, 0x65, 0x5f, 0x31, 0x2f, 0x4d, 0x61, 0x74, 0x4d, 0x75, 0x6c, 0x00, 0x00, 0x00, 0x54, 0xed, 0xff, 0xff, 0xaa, 0xee, 0xff, 0xff, 0x04, 0x00, 0x00, 0x00, 0x00, 0x10, 0x00, 0x00, 0x55, 0x41, 0x66, 0x3d, 0x6c, 0x2c, 0xed, 0x3d, 0x13, 0x80, 0x00, 0xbe, 0x75, 0x00, 0xde, 0x3d, 0xaf, 0xe9, 0x27, 0x3e, 0x17, 0x5f, 0x2a, 0xbe, 0xcb, 0x2a, 0xbc, 0xbe, 0x57, 0x11, 0x2e, 0x3e, 0x3c, 0xd2, 0x25, 0x3d, 0x93, 0x67, 0x3d, 0x3e, 0xa3, 0x4e, 0x50, 0xbe, 0x19, 0xc5, 0x7b, 0xbc, 0x54, 0x3e, 0xb4, 0xbe, 0xa7, 0x19, 0xb5, 0x3d, 0xbd, 0xce, 0xf1, 0x3d, 0xee, 0xb5, 0x56, 0x3d, 0x63, 0xee, 0xc6, 0xbe, 0x73, 0xa3, 0x30, 0xbe, 0x56, 0x86, 0x0d, 0x3e, 0x63, 0x8b, 0x2e, 0x3e, 0xf6, 0x8c, 0xb3, 0xbe, 0x37, 0x08, 0x55, 0xbb, 0x29, 0xb5, 0x8b, 0xbe, 0x35, 0xb1, 0x75, 0xbe, 0xc2, 0x4e, 0xb1, 0xbc, 0x6c, 0xb8, 0x9e, 0xbd, 0xff, 0x49, 0x27, 0x3b, 0x44, 0x01, 0xb6, 0xbe, 0x8d, 0xb8, 0x22, 0xbb, 0x7b, 0xed, 0xe8, 0x3d, 0xfe, 0x3e, 0x40, 0xbd, 0x9c, 0xd6, 0x7f, 0xbe, 0xe2, 0x7a, 0x88, 0xbd, 0x3e, 0xb0, 0x6b, 0xbc, 0xe0, 0x23, 0x66, 0xbe, 0xfe, 0x8c, 0x8e, 0xbe, 0xa0, 0x38, 0x86, 0xbe, 0x3a, 0xf8, 0x8e, 0xbe, 0x1c, 0x32, 0x82, 0xbe, 0x5b, 0x3c, 0xa1, 0xbe, 0xfc, 0x81, 0x0e, 0x3e, 0x00, 0x6a, 0xe1, 0xbd, 0x36, 0x42, 0xe1, 0x3b, 0xa6, 0x15, 0x80, 0x3e, 0xfc, 0x55, 0xf9, 0xbd, 0x91, 0x7f, 0xbf, 0xbd, 0xe1, 0x76, 0xbd, 0x3d, 0x67, 0xf9, 0x2a, 0xbc, 0x98, 0x30, 0xf3, 0x3d, 0x54, 0x3e, 0x33, 0x3e, 0xe6, 0x13, 0x82, 0xbe, 0xbe, 0x55, 0x95, 0xbe, 0x3e, 0x93, 0xb9, 0xbd, 0x37, 0x44, 0x1f, 0x3c, 0x7a, 0xf6, 0x6b, 0xbd, 0x64, 0xcb, 0x19, 0xbd, 0xd4, 0xaa, 0x94, 0xbe, 0x9e, 0x9f, 0xb5, 0xbd, 0xf1, 0xe6, 0xa3, 0xbe, 0x9f, 0x5c, 0x95, 0xbe, 0x95, 0xdb, 0x51, 0xbe, 0x58, 0xdc, 0xb8, 0xbd, 0x2f, 0xa9, 0x82, 0x3d, 0x7c, 0xc5, 0xe2, 0xbd, 0x12, 0x0e, 0xc9, 0xbd, 0x90, 0x80, 0x3d, 0xbc, 0xa3, 0x29, 0x6f, 0xbe, 0x72, 0xe2, 0x85, 0xbe, 0xf9, 0xeb, 0x6c, 0xbe, 0x3c, 0xd7, 0x42, 0xbd, 0x2f, 0x3d, 0x8a, 0xbe, 0x21, 0xbe, 0x15, 0x3e, 0x54, 0xea, 0xb0, 0x3d, 0x07, 0x6b, 0x10, 0x3e, 0x19, 0xbd, 0x48, 0xbe, 0x9a, 0x61, 0xf2, 0xbd, 0x4a, 0x94, 0xd8, 0xbd, 0x15, 0x53, 0x52, 0xbe, 0x4c, 0x20, 0x88, 0xbe, 0xf1, 0x1b, 0x2c, 0x3e, 0x43, 0x0a, 0x70, 0xbe, 0x16, 0x7a, 0xdb, 0x3d, 0xa8, 0x5b, 0xdd, 0xbd, 0xa8, 0x90, 0xc3, 0x3d, 0xc1, 0xe9, 0xd0, 0xbc, 0x96, 0xc1, 0xe2, 0xbd, 0xed, 0xd1, 0x35, 0x3e, 0xdf, 0xb7, 0x8b, 0x3c, 0x5f, 0x39, 0x1b, 0xbe, 0xa4, 0x1e, 0x08, 0x3d, 0xb2, 0xd7, 0xcd, 0xbd, 0x8b, 0x1c, 0x39, 0xbe, 0x6d, 0xec, 0x91, 0x3e, 0x84, 0x4a, 0x60, 0xbe, 0x0a, 0x35, 0x07, 0xbe, 0x14, 0xfc, 0x1e, 0xbe, 0xf2, 0x44, 0x16, 0xbe, 0xd2, 0x7d, 0x99, 0xbe, 0x72, 0x48, 0x3f, 0x3c, 0x1b, 0x17, 0xa7, 0xbd, 0xda, 0x81, 0x8e, 0xbe, 0x7f, 0x75, 0xc6, 0xbd, 0xc5, 0x1b, 0xf7, 0xbd, 0x3a, 0xcb, 0xb8, 0xbe, 0x17, 0xf1, 0xc1, 0xbd, 0xad, 0xc7, 0xdf, 0xbc, 0x5b, 0x55, 0x6d, 0xbe, 0x55, 0x0f, 0xa1, 0xbe, 0x72, 0x9a, 0x40, 0xbe, 0x79, 0xff, 0xbe, 0xbd, 0x7a, 0x24, 0xa4, 0x3d, 0x6f, 0x66, 0x6d, 0x3e, 0x6e, 0xd8, 0x4b, 0x3d, 0xe4, 0xc4, 0x20, 0x3e, 0x3f, 0x8a, 0x85, 0xbe, 0xea, 0x3b, 0xa8, 0x3c, 0x19, 0x9b, 0x2b, 0x3e, 0xdb, 0x2f, 0x4f, 0x3e, 0x4a, 0x94, 0x4c, 0x3e, 0x30, 0xc2, 0x1d, 0x3d, 0x52, 0xe1, 0xd9, 0x3d, 0x3a, 0x0c, 0x8c, 0xbe, 0xdd, 0x57, 0x3e, 0xbe, 0xcb, 0x64, 0x45, 0xbe, 0xe6, 0xc8, 0x03, 0xbf, 0x32, 0x0b, 0xd5, 0xbe, 0x8f, 0xf2, 0x3d, 0xbe, 0x8a, 0x03, 0x0c, 0x3e, 0xe4, 0x66, 0xbe, 0xbe, 0x9d, 0x64, 0x0f, 0x3e, 0xa2, 0xc0, 0x71, 0x3e, 0xdd, 0x5d, 0xc4, 0xbd, 0xa0, 0x79, 0x0e, 0xbd, 0x35, 0x3d, 0x87, 0x3d, 0x66, 0x4e, 0x87, 0xbe, 0x59, 0xac, 0x5d, 0xbe, 0x57, 0xd8, 0x86, 0xbd, 0x23, 0xea, 0x88, 0x3e, 0x32, 0x30, 0x2a, 0x3e, 0xda, 0x1e, 0x01, 0x3d, 0x1b, 0x17, 0x38, 0x3e, 0x24, 0xf8, 0x78, 0xbe, 0xfe, 0x86, 0x5b, 0xbe, 0x8e, 0xd9, 0x58, 0xbe, 0x81, 0xd1, 0x33, 0x3e, 0xf1, 0x6a, 0x3f, 0x3d, 0x85, 0xa1, 0x36, 0xbe, 0x71, 0x9b, 0x39, 0xbe, 0x86, 0xb5, 0x94, 0xbe, 0x56, 0x22, 0x30, 0x3e, 0x8a, 0xa5, 0xae, 0xbd, 0x06, 0xf9, 0xa5, 0xbd, 0x9e, 0xbc, 0x4c, 0xbd, 0x49, 0xc2, 0x1c, 0xbe, 0xed, 0x07, 0x8d, 0xbe, 0x07, 0xb7, 0x40, 0x3e, 0xe9, 0xbe, 0xa4, 0x3d, 0xaf, 0x66, 0xb1, 0xbd, 0xf5, 0xef, 0xa3, 0xbe, 0x63, 0x10, 0x98, 0xbe, 0x1a, 0x3d, 0xf1, 0x3d, 0x9d, 0xcd, 0x4d, 0x3e, 0x91, 0xb9, 0x22, 0x3d, 0xc3, 0x35, 0x88, 0xbc, 0xc1, 0xc4, 0x2b, 0x3e, 0x41, 0xb5, 0xac, 0x3d, 0x74, 0x47, 0xb1, 0x3d, 0x08, 0xba, 0x4c, 0xbe, 0xed, 0xac, 0x35, 0xbe, 0xce, 0x49, 0x87, 0x3d, 0xaa, 0x0f, 0x81, 0x3e, 0x98, 0x6c, 0xb8, 0xbd, 0xa9, 0x40, 0x4f, 0xbe, 0x7c, 0x6c, 0x84, 0xbd, 0x4b, 0xcc, 0x19, 0xbe, 0x4d, 0x8b, 0xa0, 0x3d, 0xb8, 0xdf, 0xaf, 0xbc, 0xc6, 0xda, 0xbe, 0xbc, 0x1e, 0xa2, 0xd8, 0x3c, 0x41, 0x0c, 0x88, 0xbe, 0x2c, 0x70, 0xdd, 0xbd, 0x05, 0xe3, 0x8c, 0xbd, 0x7f, 0x0f, 0x9c, 0xbd, 0xdc, 0x53, 0x69, 0xbe, 0xd1, 0x68, 0x82, 0xbe, 0xf6, 0x94, 0xa9, 0xbe, 0x6e, 0xf7, 0xfe, 0xbe, 0xa7, 0xf9, 0x83, 0x3c, 0x25, 0xdd, 0x24, 0xbe, 0x96, 0xa8, 0xe3, 0xbe, 0xe3, 0x15, 0xd7, 0xbd, 0x26, 0x26, 0x68, 0xbe, 0x03, 0xd9, 0x4d, 0x3d, 0xe8, 0x96, 0x19, 0xbe, 0x9d, 0x49, 0x1a, 0xbe, 0x55, 0xa3, 0x06, 0x3c, 0x15, 0x4f, 0x94, 0xbd, 0xb7, 0x73, 0x80, 0xbe, 0x4e, 0x39, 0xd1, 0x3b, 0x4b, 0x3b, 0xfc, 0x3c, 0x06, 0xdd, 0x2e, 0xbc, 0xdf, 0xf6, 0xac, 0xbd, 0x76, 0xe6, 0x54, 0x3e, 0x2c, 0x64, 0xa3, 0xbe, 0xe2, 0xbf, 0x67, 0xbd, 0x3e, 0x53, 0xb2, 0x3d, 0xd2, 0x94, 0x19, 0xbe, 0x0f, 0xe6, 0x7e, 0xbe, 0xda, 0xfa, 0x91, 0xbd, 0xa1, 0xcb, 0x9e, 0xbd, 0x15, 0x79, 0x92, 0xbd, 0x04, 0x09, 0x84, 0x3e, 0x1e, 0xd5, 0x2a, 0x3e, 0x0f, 0xb2, 0x4e, 0x3e, 0xfc, 0xb4, 0x6c, 0xbd, 0xc6, 0xa6, 0x38, 0x3e, 0xca, 0x53, 0x21, 0x3d, 0x19, 0x5a, 0x14, 0x3e, 0x86, 0xfb, 0x1b, 0xbd, 0xd0, 0xd3, 0xc4, 0xbd, 0x71, 0x0c, 0xde, 0xbe, 0xbc, 0xe7, 0x7c, 0xbe, 0xf7, 0xec, 0x01, 0xbe, 0x81, 0xed, 0xe9, 0xbe, 0xcb, 0x6e, 0xd6, 0x3d, 0x38, 0x6d, 0xba, 0x3c, 0x90, 0x51, 0x7f, 0xbe, 0x3f, 0xa9, 0x23, 0xbc, 0x92, 0xe6, 0x5c, 0xbc, 0x6b, 0x52, 0xc9, 0x3d, 0xc7, 0xb1, 0x71, 0xbe, 0xb6, 0xf7, 0xe7, 0xbb, 0xeb, 0x14, 0xcd, 0xbe, 0x27, 0xef, 0x69, 0xbc, 0x05, 0x1a, 0x67, 0xbe, 0x75, 0xc2, 0x0e, 0x3e, 0x3b, 0x0a, 0x43, 0xbc, 0x8b, 0x2e, 0x5f, 0xbe, 0xfb, 0x00, 0x38, 0x3e, 0xca, 0xaf, 0x4c, 0x3e, 0x33, 0xf0, 0x72, 0xbe, 0x4e, 0x42, 0x91, 0x3d, 0x70, 0xaa, 0x9a, 0xbe, 0x6f, 0xab, 0x96, 0xbb, 0x6e, 0x65, 0x1b, 0xbe, 0x02, 0x12, 0x52, 0xbd, 0x61, 0x35, 0x3a, 0xbe, 0x0c, 0x3b, 0x87, 0x3d, 0x5b, 0x90, 0x25, 0xbe, 0x7e, 0x93, 0x89, 0xbe, 0xee, 0x61, 0x81, 0xbe, 0x7e, 0x4b, 0x31, 0xbe, 0xb2, 0x71, 0x22, 0xbd, 0x70, 0x7a, 0x98, 0xbe, 0xb3, 0x25, 0x8d, 0xbd, 0xf4, 0x6a, 0xc4, 0xbe, 0xc4, 0xb7, 0x45, 0xbe, 0x51, 0x99, 0x49, 0xbe, 0xe5, 0xa5, 0x77, 0xbd, 0x2b, 0xba, 0x64, 0xbe, 0x0b, 0x4e, 0xbf, 0x3c, 0xac, 0x43, 0x52, 0xbe, 0xe1, 0xb0, 0x2c, 0x3e, 0x79, 0x78, 0x3d, 0x3e, 0xc7, 0xaa, 0x5f, 0x3e, 0xf3, 0x9e, 0x3a, 0x3d, 0xd6, 0x70, 0x20, 0xbe, 0xe0, 0xba, 0x03, 0xbd, 0xef, 0x0c, 0x71, 0xbe, 0x16, 0x53, 0x5c, 0x3e, 0xce, 0x01, 0x80, 0x3d, 0xf7, 0x75, 0x32, 0xbe, 0xdd, 0x8d, 0xbd, 0xbc, 0xc8, 0x76, 0x8c, 0x3e, 0x1c, 0x45, 0x80, 0x3e, 0x7b, 0xa5, 0x4d, 0xbe, 0xeb, 0x10, 0x18, 0xbc, 0x45, 0xe0, 0x80, 0xbd, 0xb2, 0x2b, 0x9d, 0xbe, 0x23, 0x2a, 0x71, 0xbd, 0x29, 0x17, 0xfe, 0xbd, 0x08, 0x44, 0xbb, 0x3d, 0x44, 0xe4, 0x90, 0xbe, 0x36, 0x8d, 0x8f, 0xbe, 0xe2, 0x19, 0x40, 0x3e, 0x87, 0x57, 0x9d, 0xbe, 0x6f, 0x06, 0x96, 0xbd, 0x70, 0x10, 0x85, 0xbe, 0x5e, 0x64, 0x77, 0xbe, 0x64, 0x7a, 0x2d, 0x3e, 0x77, 0x7e, 0x0f, 0xbe, 0xa2, 0x21, 0x81, 0xbe, 0x40, 0x26, 0x66, 0xbe, 0x00, 0xf2, 0x34, 0x3d, 0x0a, 0x3d, 0x3d, 0x3e, 0x8b, 0xa8, 0x9c, 0xbd, 0xf0, 0x11, 0x93, 0xbe, 0x35, 0xa9, 0x3e, 0xbe, 0xfa, 0xad, 0x8a, 0xbc, 0xd7, 0xca, 0x60, 0xbe, 0x8e, 0xce, 0x49, 0xbd, 0x73, 0x90, 0x77, 0xbd, 0x32, 0x50, 0x09, 0x3c, 0x8e, 0x89, 0x7b, 0xbe, 0x2a, 0x90, 0x2a, 0x3e, 0x87, 0xcd, 0xb7, 0xbe, 0xba, 0x1b, 0x87, 0xbe, 0x2f, 0x05, 0x45, 0xbe, 0x01, 0xfb, 0x3d, 0x3e, 0xcf, 0x93, 0xbe, 0x3d, 0xc9, 0x0e, 0x6a, 0xbd, 0xab, 0x6c, 0x94, 0x3e, 0x85, 0x1d, 0x34, 0xbe, 0x07, 0x20, 0x0a, 0xbe, 0x9c, 0x5e, 0xb7, 0x3e, 0x41, 0xb9, 0xc0, 0xbd, 0x89, 0xdc, 0xc0, 0x3c, 0x9b, 0xcb, 0x77, 0x3e, 0x6b, 0x4c, 0xbd, 0xbc, 0x51, 0x90, 0xf5, 0x3d, 0x70, 0x12, 0xe1, 0xbd, 0x21, 0xe9, 0x51, 0x3e, 0xea, 0x9b, 0xc9, 0xbd, 0x46, 0x4a, 0x90, 0x3c, 0xc0, 0xa0, 0x80, 0x3e, 0xe4, 0x7b, 0x9f, 0xbe, 0x50, 0xa3, 0xf8, 0x3d, 0x6b, 0x9b, 0xff, 0xbd, 0xea, 0x35, 0xa2, 0xbc, 0xcf, 0xbc, 0xe4, 0x3d, 0xad, 0x25, 0x78, 0xbe, 0xd2, 0xa4, 0x1d, 0xbe, 0x1f, 0xff, 0x59, 0x3d, 0x6e, 0xa0, 0x3c, 0x3d, 0x1b, 0xa3, 0xe4, 0xbe, 0xfc, 0x1b, 0xa9, 0xbd, 0xd3, 0x69, 0x07, 0x3e, 0xb7, 0x2d, 0x38, 0x3e, 0x68, 0xde, 0xf4, 0x3d, 0x39, 0x7d, 0xfe, 0xbd, 0xf8, 0x7b, 0x9e, 0xbe, 0x4f, 0x3f, 0x61, 0x3e, 0xd3, 0x1d, 0x08, 0xbd, 0xd0, 0xad, 0xd3, 0x3d, 0x1e, 0x42, 0x96, 0x3d, 0xe4, 0x7b, 0x82, 0xbe, 0x83, 0x9a, 0xed, 0xbd, 0xf3, 0x39, 0xdc, 0xbe, 0x06, 0x3b, 0x92, 0xbe, 0x73, 0x22, 0xd3, 0xbd, 0x7f, 0x43, 0x3b, 0xbe, 0x41, 0x60, 0x8c, 0xbe, 0x77, 0x0c, 0xfe, 0x3d, 0x45, 0xaf, 0x74, 0xbe, 0x7c, 0x93, 0xda, 0x3c, 0xfe, 0x34, 0x93, 0xbe, 0xd7, 0xf5, 0x34, 0x3e, 0xb3, 0xab, 0xbc, 0x3d, 0xd5, 0x2e, 0x22, 0xbd, 0x23, 0xdd, 0x28, 0x3e, 0x0a, 0xf7, 0xf5, 0xbc, 0xe1, 0xc9, 0xa0, 0xbe, 0xd5, 0x70, 0x05, 0x3c, 0x4c, 0x18, 0x8b, 0x3e, 0x10, 0x87, 0x73, 0x3e, 0x3c, 0x6a, 0x30, 0xbe, 0x6a, 0x64, 0x1d, 0xbd, 0x9a, 0x10, 0x4c, 0xbc, 0x2e, 0xab, 0x0d, 0xbe, 0x7b, 0x74, 0x56, 0x3e, 0xca, 0xef, 0x3f, 0x3c, 0x30, 0xd6, 0x90, 0x3e, 0x3e, 0x32, 0x15, 0xbe, 0x18, 0x29, 0x3b, 0xbd, 0x08, 0x9c, 0xa3, 0x3e, 0x59, 0xe5, 0x39, 0xbc, 0x33, 0x2b, 0x0d, 0xbc, 0xf2, 0xc8, 0x75, 0xbe, 0x42, 0xdb, 0x91, 0xbe, 0x44, 0x30, 0xcf, 0xbe, 0xdd, 0xe2, 0x68, 0x3d, 0xbc, 0xdb, 0x96, 0xbe, 0x9b, 0x8d, 0x9c, 0xbe, 0x9d, 0x55, 0x9d, 0xbe, 0xe0, 0x38, 0x92, 0xbe, 0x1a, 0xa6, 0x00, 0x3e, 0x9c, 0xc9, 0x3c, 0x3e, 0x13, 0x3b, 0x64, 0x3e, 0x98, 0x60, 0x9a, 0x3d, 0xfe, 0x9d, 0x29, 0xbe, 0x54, 0x3d, 0xbd, 0x3d, 0xd8, 0xcb, 0xa7, 0xbe, 0x6c, 0x33, 0x9d, 0xbd, 0x34, 0xa7, 0xb9, 0xbc, 0x94, 0x2b, 0xf3, 0x3d, 0xff, 0x4f, 0xe2, 0xbd, 0x43, 0x46, 0x3b, 0x3d, 0x5c, 0x29, 0x2f, 0xbd, 0x0b, 0x69, 0x9d, 0x3d, 0x65, 0x19, 0x6e, 0xbe, 0xe7, 0xc4, 0x69, 0xbe, 0x0e, 0x3b, 0x80, 0x3b, 0xc0, 0x63, 0xac, 0xbe, 0x8f, 0xbd, 0xfb, 0x3d, 0x0b, 0xab, 0xfc, 0xbd, 0x1a, 0x3c, 0x6b, 0xbe, 0x57, 0x4d, 0x4c, 0xbd, 0x2a, 0x5a, 0x9c, 0xbe, 0xf8, 0xb7, 0x3c, 0x3e, 0xae, 0xd3, 0xa9, 0xbd, 0x2b, 0x37, 0xdf, 0xbe, 0x11, 0xe0, 0x36, 0xbe, 0x25, 0x38, 0xf8, 0x3d, 0xf6, 0x74, 0xd0, 0xbe, 0x82, 0x99, 0x81, 0x3c, 0x28, 0xe3, 0xfa, 0x3d, 0x98, 0x47, 0x1e, 0x3d, 0x65, 0xf9, 0x6f, 0x3d, 0xe9, 0xe3, 0x4e, 0xbe, 0xd5, 0xfa, 0x8a, 0x3e, 0xa8, 0xd5, 0x0f, 0x3d, 0x58, 0x79, 0x50, 0xbe, 0xde, 0x36, 0x71, 0x3e, 0x29, 0xf7, 0xe3, 0x3d, 0x4a, 0x94, 0xf1, 0x3d, 0x81, 0x87, 0x06, 0xbe, 0x51, 0x86, 0xe9, 0x3b, 0x76, 0x8e, 0x54, 0xbe, 0xff, 0x25, 0xb1, 0x3c, 0xb8, 0x88, 0x0d, 0x3e, 0x0b, 0x90, 0x85, 0xbe, 0x0a, 0xa4, 0xb0, 0xbd, 0x52, 0x3d, 0x72, 0xbe, 0x18, 0xbc, 0x8f, 0xbe, 0x38, 0x72, 0x77, 0xbe, 0xef, 0x7d, 0x21, 0xbd, 0xd8, 0x78, 0x2b, 0xbc, 0x79, 0x26, 0x31, 0x3d, 0xdf, 0xe9, 0x6a, 0xbe, 0xcd, 0x02, 0xcb, 0xbd, 0x4e, 0x5a, 0x87, 0xbe, 0xca, 0xbc, 0x11, 0xbe, 0xad, 0xd4, 0xdb, 0x3d, 0xe4, 0xf4, 0xbb, 0xbe, 0x04, 0xb0, 0x53, 0xbe, 0x4f, 0xa8, 0x22, 0x3d, 0x09, 0x04, 0xe3, 0xbe, 0xf9, 0xe9, 0x58, 0xbe, 0x0f, 0x16, 0x64, 0xbd, 0x96, 0xb7, 0xd4, 0xbd, 0x2a, 0xee, 0x01, 0xbd, 0x98, 0x82, 0x54, 0xbc, 0x48, 0x3d, 0x98, 0xbe, 0x48, 0x0e, 0xd3, 0xbd, 0x3b, 0x92, 0x78, 0xbe, 0x5f, 0x06, 0x10, 0xbd, 0x0c, 0x44, 0xc2, 0x3d, 0x97, 0xd2, 0x98, 0xbe, 0xe6, 0x8e, 0x1a, 0xbe, 0xbc, 0x71, 0xd0, 0xbd, 0x3e, 0xb3, 0x86, 0x3e, 0x4e, 0xa0, 0xda, 0xbe, 0xbd, 0x95, 0xfd, 0xbd, 0x57, 0xec, 0x15, 0x3d, 0x1e, 0xbc, 0xf9, 0xbd, 0x6c, 0xd6, 0x78, 0xbd, 0x14, 0xbc, 0x00, 0x3e, 0x06, 0xb3, 0x0e, 0xbd, 0xb6, 0xe8, 0xcc, 0x3d, 0x3b, 0x75, 0x8f, 0xbe, 0x4f, 0x0a, 0x1b, 0x3e, 0xa7, 0x76, 0x3f, 0xbe, 0xb2, 0x59, 0x73, 0x3e, 0x59, 0x80, 0x49, 0xbe, 0xfa, 0xce, 0xc9, 0xbe, 0x1f, 0xa9, 0x69, 0xbe, 0x8f, 0xe7, 0xac, 0x3c, 0x72, 0x65, 0x20, 0xbd, 0x73, 0x3c, 0x12, 0x3e, 0xa4, 0x54, 0x24, 0xbe, 0xf5, 0x36, 0xb2, 0x3d, 0x5a, 0xbe, 0x9a, 0xbe, 0x96, 0x06, 0x17, 0x3e, 0x69, 0x19, 0x28, 0xbe, 0xb1, 0xc2, 0xd1, 0xbe, 0x82, 0x19, 0xce, 0xbc, 0xf2, 0x9f, 0x2a, 0xbe, 0x82, 0xfc, 0xbf, 0xbc, 0x67, 0x1d, 0x4b, 0xbe, 0xee, 0x5e, 0xd0, 0x3d, 0xd5, 0xa5, 0x56, 0xbd, 0xc3, 0xc1, 0x77, 0xbe, 0x7a, 0x27, 0xa3, 0x3e, 0x35, 0x26, 0x7c, 0xbe, 0xed, 0x30, 0xa3, 0x3d, 0xc3, 0xd1, 0x5a, 0x3e, 0xbb, 0xe4, 0xd8, 0xbd, 0xc8, 0x52, 0x5d, 0xbe, 0x75, 0xb0, 0x99, 0x3d, 0x99, 0x0d, 0x2b, 0xbe, 0x22, 0xaf, 0x9b, 0x3d, 0xd4, 0xa1, 0x64, 0xbe, 0x1d, 0xd6, 0xe1, 0x3d, 0x17, 0x21, 0xd1, 0x3d, 0x8a, 0x9b, 0xa8, 0x3d, 0x81, 0x16, 0x47, 0xbe, 0x94, 0x08, 0xeb, 0xbd, 0x47, 0xc4, 0x20, 0x3e, 0x9d, 0x89, 0x91, 0xbe, 0x8d, 0xfd, 0x8c, 0x3c, 0x43, 0x58, 0x5c, 0xbe, 0xa7, 0x92, 0x88, 0x3e, 0x27, 0xf9, 0x0f, 0xbe, 0x67, 0x11, 0x79, 0x3e, 0x22, 0x86, 0x01, 0xbe, 0x22, 0x56, 0x78, 0xbd, 0xd0, 0x50, 0xdd, 0x3d, 0x1c, 0x4b, 0x64, 0x3e, 0x14, 0x1a, 0xa5, 0x3e, 0xda, 0x18, 0x59, 0xbb, 0x2a, 0xbf, 0x38, 0xbd, 0xed, 0xa6, 0x41, 0xbf, 0xe0, 0xc4, 0x77, 0x3d, 0xde, 0x40, 0x6b, 0xbe, 0xe6, 0x3a, 0xb8, 0x3d, 0x9e, 0x4d, 0xc1, 0x3d, 0x35, 0x7d, 0x8e, 0xbc, 0x8a, 0x4f, 0x1e, 0xbe, 0x16, 0x2f, 0x34, 0x3e, 0x91, 0xfa, 0x8c, 0x3e, 0x8d, 0x0a, 0x70, 0x3e, 0xe9, 0xda, 0xa1, 0xbd, 0x5c, 0xa2, 0x61, 0xbd, 0x66, 0x9b, 0x80, 0xbe, 0xb5, 0x25, 0x5a, 0xbe, 0xf0, 0xe4, 0xc1, 0x3c, 0x4d, 0xee, 0x20, 0x3d, 0x40, 0x51, 0x79, 0xbe, 0x02, 0xd6, 0x7c, 0xbd, 0xfb, 0x13, 0x2a, 0xbe, 0x8c, 0x77, 0x51, 0x3e, 0xb0, 0xec, 0xc7, 0xbd, 0xb2, 0xe8, 0x21, 0x3e, 0xf7, 0x9c, 0x20, 0xbc, 0xb9, 0x10, 0xcd, 0xbc, 0x8d, 0x9d, 0x12, 0xbe, 0xd1, 0x96, 0x1a, 0xbe, 0x01, 0x26, 0xfa, 0xbd, 0x65, 0xe3, 0x0d, 0x3d, 0x85, 0x1d, 0x92, 0xbe, 0xbd, 0xfc, 0x8f, 0xbe, 0xad, 0xcb, 0xb4, 0x3d, 0x6b, 0x3e, 0xa3, 0xbd, 0x09, 0x01, 0xd3, 0xbd, 0x33, 0xe7, 0x94, 0xbd, 0x95, 0x25, 0x86, 0xbe, 0x99, 0x64, 0x16, 0x3e, 0xb6, 0xd0, 0x03, 0x3d, 0xc3, 0xbb, 0xa4, 0xbd, 0x84, 0x70, 0x45, 0xbe, 0x0a, 0x30, 0x85, 0xbe, 0x93, 0x2f, 0x93, 0x3d, 0xcb, 0xe6, 0x8f, 0xbe, 0x99, 0x7f, 0x44, 0x3c, 0x72, 0x21, 0x59, 0x3e, 0x30, 0x3c, 0xbc, 0x3b, 0x76, 0xa8, 0xa7, 0xbb, 0x57, 0xa8, 0x5e, 0x3e, 0x7e, 0x2d, 0xb3, 0xbd, 0x47, 0x57, 0xc8, 0x3d, 0x5b, 0x31, 0x79, 0x3d, 0x76, 0xe5, 0x32, 0x3e, 0xcb, 0x49, 0x20, 0xbe, 0xfc, 0xae, 0x1d, 0xbc, 0xe9, 0xa7, 0x8b, 0xbd, 0x84, 0x47, 0x14, 0xbe, 0x2b, 0x23, 0x04, 0x3d, 0xdd, 0x0c, 0x8e, 0xbc, 0x72, 0xfc, 0x4e, 0x3e, 0xb6, 0xbb, 0x6f, 0x3e, 0xcc, 0x06, 0x80, 0xbe, 0x5e, 0xc9, 0x9a, 0xbe, 0xe4, 0x4f, 0x3f, 0x3e, 0xa6, 0xe1, 0x94, 0xbe, 0xf9, 0x65, 0x50, 0x3d, 0x8a, 0xb7, 0x35, 0x3b, 0x24, 0xe7, 0x04, 0xbe, 0xd9, 0x59, 0xa3, 0xbe, 0xb0, 0xde, 0xb3, 0x3c, 0x76, 0xfc, 0xa5, 0xbe, 0x64, 0x54, 0xd8, 0xbd, 0x17, 0xe2, 0x27, 0xbe, 0x6a, 0x92, 0xbb, 0x3d, 0xdf, 0x6d, 0xe4, 0x3d, 0x97, 0xd6, 0x8b, 0x3e, 0xc5, 0x3d, 0xb0, 0x3d, 0xdf, 0x0d, 0x6c, 0xbe, 0x2e, 0xef, 0xcd, 0x3d, 0x04, 0xdd, 0x3e, 0xbe, 0xfa, 0xb5, 0x9e, 0xbc, 0xa1, 0x22, 0x03, 0x3d, 0x76, 0x20, 0x01, 0xbe, 0x21, 0xd0, 0xd4, 0xbd, 0x6f, 0xcc, 0x85, 0xbe, 0x6d, 0x04, 0x9c, 0x3d, 0x4e, 0xda, 0x43, 0xbe, 0xdb, 0xed, 0xd0, 0x3d, 0x5a, 0x0c, 0x36, 0xbd, 0xcd, 0xef, 0x60, 0xbe, 0x03, 0x3b, 0x36, 0xbd, 0xaf, 0x9c, 0x81, 0xbe, 0x4c, 0x38, 0x07, 0x3e, 0xa9, 0xae, 0x3c, 0x3e, 0xbc, 0xaf, 0xb6, 0xbd, 0x45, 0x39, 0x2f, 0xbe, 0x59, 0xf4, 0x15, 0x3e, 0x4f, 0x8a, 0x70, 0xbe, 0x22, 0xce, 0x4a, 0xbe, 0x17, 0xf1, 0x67, 0x3e, 0x35, 0xc2, 0x3a, 0x3d, 0x75, 0xce, 0x8a, 0xbe, 0x6b, 0x15, 0x22, 0xbc, 0x00, 0x5f, 0x80, 0xbe, 0x7d, 0x9b, 0xce, 0x3d, 0xdb, 0x79, 0x04, 0x3e, 0x52, 0xa3, 0x89, 0xbe, 0x21, 0x2c, 0x4f, 0xbe, 0x06, 0xdd, 0x1a, 0xbe, 0xac, 0x96, 0xac, 0xbb, 0x1b, 0x59, 0x82, 0x3d, 0x55, 0xeb, 0x75, 0xbe, 0x02, 0x8a, 0xda, 0x3d, 0xff, 0xc8, 0x82, 0xbe, 0x38, 0xed, 0x41, 0x3e, 0x59, 0x8e, 0x5c, 0xbd, 0x7f, 0x48, 0x52, 0x3e, 0xdb, 0x01, 0x76, 0x3e, 0x26, 0x64, 0x16, 0xbe, 0x86, 0x48, 0xb0, 0xbe, 0x25, 0x98, 0x55, 0xbe, 0xcf, 0x89, 0x97, 0x3e, 0x15, 0xce, 0x82, 0x3e, 0x36, 0xa9, 0xf3, 0xbc, 0xbe, 0x66, 0x17, 0xbd, 0x22, 0x06, 0x0c, 0x3e, 0x09, 0xf9, 0x91, 0xbd, 0xd5, 0xcc, 0x25, 0xbe, 0x1e, 0x69, 0x0d, 0x3d, 0xc2, 0xf7, 0x30, 0x3c, 0xeb, 0x66, 0x43, 0xbe, 0xf5, 0x5e, 0x79, 0x3e, 0x57, 0xff, 0xb7, 0xbe, 0x4e, 0x86, 0x4e, 0x3e, 0x2d, 0xd5, 0x97, 0xbd, 0x2c, 0x1e, 0x30, 0xbe, 0x66, 0x58, 0x9a, 0xbe, 0xb0, 0xa1, 0x96, 0x3c, 0x92, 0xf4, 0x9b, 0x3c, 0xe7, 0xbe, 0x8f, 0x3e, 0x44, 0xa9, 0x4e, 0x3d, 0x1d, 0x41, 0xc5, 0xbe, 0xc1, 0xb0, 0x54, 0xbe, 0x53, 0x54, 0x90, 0x3e, 0xbb, 0x07, 0x71, 0xbe, 0x98, 0x99, 0x84, 0xbe, 0x42, 0xbd, 0x10, 0xbe, 0x3b, 0xee, 0x50, 0xbd, 0xb0, 0xdf, 0x51, 0x3d, 0x83, 0xbb, 0xc1, 0xbe, 0xfc, 0xf4, 0x6d, 0xbb, 0x11, 0xd1, 0xd5, 0xbd, 0xf8, 0xa3, 0xe4, 0xbe, 0x34, 0x4a, 0xd4, 0xbc, 0x38, 0x83, 0x89, 0x3d, 0xc6, 0x23, 0x5f, 0xbe, 0x99, 0xdb, 0x38, 0x3e, 0x97, 0x5b, 0x35, 0x3e, 0xdc, 0xf5, 0x88, 0xbe, 0x6f, 0x7d, 0x84, 0x3e, 0x06, 0x27, 0x1c, 0xbe, 0x84, 0x37, 0xec, 0x3d, 0x57, 0xdf, 0x7d, 0x3d, 0xc1, 0x79, 0x5f, 0x3e, 0xc3, 0xc8, 0x02, 0xbe, 0x68, 0x90, 0x42, 0xbe, 0x42, 0xb3, 0xc7, 0x3d, 0x61, 0xd2, 0xb2, 0xbe, 0xd6, 0x12, 0xc1, 0x3d, 0xf5, 0x0c, 0x86, 0xbe, 0x72, 0xbe, 0xf7, 0xbd, 0xfe, 0xac, 0x8c, 0xbc, 0x16, 0xe8, 0x71, 0x3e, 0xec, 0x49, 0x1c, 0x3e, 0xbc, 0x12, 0xb6, 0xbc, 0x3d, 0x5e, 0xb4, 0xbe, 0xb1, 0xff, 0x21, 0xbe, 0x32, 0x43, 0x20, 0xbe, 0x27, 0x52, 0x1e, 0xbd, 0xb6, 0x27, 0x1d, 0xbe, 0xea, 0x9d, 0xbe, 0xbd, 0xf4, 0x72, 0x01, 0xbe, 0xeb, 0xf9, 0x61, 0xbd, 0x1d, 0xb5, 0x74, 0xbd, 0xfc, 0xa8, 0xa7, 0xbe, 0x6a, 0x15, 0x76, 0xbe, 0x7c, 0x64, 0xdd, 0xbd, 0x18, 0xe5, 0x92, 0xbe, 0xce, 0x14, 0xb7, 0xbd, 0x32, 0x87, 0x4b, 0x3e, 0x92, 0xee, 0xec, 0xbd, 0xea, 0x75, 0x7f, 0xbe, 0xc0, 0xd6, 0x60, 0xbc, 0x25, 0xb3, 0x3d, 0xbe, 0xa2, 0xf9, 0x02, 0xbe, 0x00, 0x6e, 0xcf, 0x3b, 0xc2, 0x43, 0x86, 0xbe, 0xae, 0x4e, 0x2c, 0xbe, 0xb3, 0xb6, 0x83, 0x3e, 0xc2, 0x02, 0x09, 0x3e, 0x9b, 0x88, 0x41, 0xbe, 0x14, 0x10, 0x42, 0x3e, 0x67, 0x78, 0x04, 0xbe, 0x7a, 0xf2, 0xe8, 0xbd, 0x40, 0xd4, 0xa1, 0x3c, 0x82, 0xe0, 0x89, 0xbe, 0xfc, 0x8c, 0x89, 0x3d, 0x50, 0xb9, 0xcb, 0xbd, 0x04, 0x54, 0x3f, 0x3e, 0x00, 0x32, 0xf9, 0x3b, 0xd2, 0x77, 0x8b, 0xbe, 0x10, 0x6a, 0x51, 0x3d, 0x06, 0x81, 0x39, 0x3e, 0x86, 0x50, 0x4b, 0x3e, 0x00, 0x57, 0x77, 0xbc, 0xa6, 0xae, 0xb5, 0xbd, 0x68, 0xf7, 0x1e, 0x3e, 0xbf, 0x1a, 0xc9, 0x3c, 0xa5, 0x81, 0xec, 0x3d, 0x0d, 0xe4, 0x1a, 0x3e, 0xbb, 0xb6, 0x10, 0xbe, 0xb1, 0x6c, 0xa9, 0xbe, 0x45, 0xa7, 0x1f, 0xbe, 0xb2, 0x89, 0xec, 0x3d, 0x75, 0xa5, 0xd3, 0x3d, 0xf7, 0x91, 0x34, 0xbe, 0xdb, 0x8e, 0x42, 0x3e, 0x6b, 0xf5, 0x99, 0xbd, 0xa5, 0x29, 0xa4, 0xbe, 0xb0, 0x31, 0x82, 0xbe, 0x1e, 0xc8, 0xb5, 0xbe, 0x0f, 0x41, 0x8e, 0xbe, 0xfe, 0xb4, 0x26, 0xbe, 0x7b, 0xe4, 0xd9, 0x3d, 0xd5, 0xc3, 0x09, 0x3d, 0x1c, 0x01, 0x5a, 0xbe, 0x85, 0xb1, 0xaa, 0xbe, 0x85, 0x4a, 0xe2, 0xbd, 0xc2, 0xe8, 0x69, 0x3c, 0x91, 0x70, 0x6b, 0xbe, 0xa8, 0x23, 0x48, 0x3e, 0xc3, 0x68, 0x0c, 0x3e, 0xae, 0x8e, 0xe2, 0xba, 0x4d, 0x80, 0x4e, 0x3e, 0xc0, 0x4d, 0x11, 0xbb, 0x22, 0xfe, 0x3a, 0x3e, 0xf1, 0x44, 0x48, 0xbe, 0xdf, 0xc5, 0x15, 0xbe, 0x04, 0xe0, 0xde, 0x3d, 0x0b, 0x2f, 0x0d, 0x3f, 0x3d, 0xe8, 0x28, 0xbd, 0x11, 0x79, 0x29, 0xbd, 0x18, 0x62, 0xe3, 0xbd, 0x33, 0x77, 0x03, 0x3e, 0x83, 0x3a, 0x45, 0x3e, 0x43, 0x40, 0x5c, 0xbe, 0xad, 0x6c, 0x71, 0x3e, 0xb0, 0x7b, 0x13, 0xbe, 0x3c, 0x02, 0xd7, 0xbe, 0xc1, 0x2d, 0x57, 0x3a, 0x5e, 0xe1, 0x83, 0x3e, 0x5f, 0x3e, 0x11, 0xbe, 0xfb, 0x5a, 0x0e, 0xbe, 0x65, 0x9c, 0x16, 0xbe, 0xb3, 0x27, 0x9c, 0xbc, 0x85, 0x0c, 0x4e, 0x3e, 0xd8, 0x28, 0x21, 0x3e, 0x45, 0xc5, 0xa0, 0xbd, 0x02, 0xa5, 0x9a, 0x3e, 0xb4, 0x03, 0xed, 0xbe, 0x6c, 0xa0, 0x4a, 0xbd, 0x42, 0x63, 0x8e, 0xbd, 0x2d, 0x8c, 0xf5, 0x3d, 0xf9, 0x6b, 0x34, 0xbe, 0xe4, 0x78, 0x90, 0xbe, 0x19, 0x99, 0x34, 0x3d, 0x86, 0x4b, 0x2a, 0xbe, 0x88, 0xd9, 0x3e, 0xbe, 0xba, 0x0d, 0xb9, 0x3c, 0xbf, 0xf9, 0x7b, 0x3e, 0x6e, 0xf9, 0x24, 0xbe, 0xdd, 0xb8, 0x02, 0xbe, 0x38, 0xbf, 0x53, 0xbe, 0x2d, 0xae, 0x53, 0xbc, 0x6d, 0xd1, 0x91, 0xbe, 0x7a, 0xdc, 0x39, 0x3e, 0x11, 0xdb, 0x12, 0xbe, 0x3b, 0xa9, 0x71, 0xbe, 0x1e, 0x74, 0x6a, 0xbe, 0x2f, 0x30, 0x20, 0x3c, 0x4a, 0x17, 0x76, 0x3c, 0x7e, 0x89, 0x66, 0xbe, 0xc6, 0x6b, 0x4e, 0xbe, 0x2f, 0xc7, 0xe2, 0x3d, 0xb3, 0x0c, 0x6a, 0xbe, 0x13, 0xf5, 0x0d, 0xbe, 0x4b, 0xff, 0xba, 0xbd, 0x1e, 0xfd, 0x16, 0x3e, 0x9d, 0x06, 0x82, 0xbe, 0x35, 0xae, 0x9b, 0xbe, 0x06, 0xd1, 0x8d, 0xbc, 0x0e, 0x08, 0x46, 0xbe, 0xb4, 0xd9, 0x5f, 0x3e, 0x74, 0xac, 0x5d, 0xbe, 0x0a, 0x16, 0x38, 0x3e, 0xa6, 0x6d, 0x90, 0xbd, 0x73, 0x8c, 0x21, 0x3d, 0xf7, 0x45, 0x8a, 0xbe, 0x01, 0x56, 0xc3, 0xbc, 0x11, 0xdd, 0x81, 0xbe, 0x61, 0x27, 0xd1, 0xbd, 0x53, 0xcd, 0x37, 0x3e, 0x8c, 0x8e, 0x68, 0xbe, 0x0c, 0x19, 0x7a, 0xbd, 0x29, 0xcd, 0x5b, 0x3d, 0xb7, 0xf6, 0x54, 0xbe, 0x71, 0x96, 0x74, 0xbe, 0x3e, 0xc5, 0x40, 0xbe, 0x34, 0xfb, 0x6e, 0xbe, 0x5c, 0xd8, 0xaf, 0x3d, 0x73, 0x3f, 0x56, 0xbd, 0xa0, 0xd8, 0x07, 0x3e, 0x17, 0xbc, 0x53, 0x3e, 0x17, 0xac, 0x34, 0xbe, 0x6d, 0xdb, 0x4f, 0x3e, 0x7f, 0xf9, 0x72, 0xbe, 0x71, 0xf5, 0x13, 0x3e, 0x24, 0xf1, 0x11, 0xbd, 0xcc, 0xa6, 0x30, 0xbd, 0x8c, 0x1d, 0x5a, 0xbc, 0xba, 0xdc, 0xc6, 0xbd, 0xcc, 0xcb, 0x0c, 0x3e, 0x16, 0xf5, 0x7b, 0xbe, 0x52, 0x02, 0x9b, 0xbe, 0xb3, 0x50, 0x21, 0xbe, 0xec, 0x1a, 0xb4, 0x3c, 0x0e, 0x53, 0x93, 0xbe, 0xf1, 0xf0, 0x64, 0xbe, 0xc8, 0x6e, 0xae, 0x3c, 0x8d, 0xa1, 0xa8, 0x3d, 0x1a, 0x84, 0x53, 0xbe, 0x8d, 0xab, 0x7c, 0xbe, 0xbd, 0x46, 0xb9, 0x3c, 0x29, 0xb9, 0xed, 0x3d, 0x95, 0xc0, 0x36, 0x3e, 0x6f, 0x95, 0x88, 0xbe, 0x35, 0xeb, 0x11, 0xbe, 0x04, 0xf8, 0x77, 0x3d, 0x20, 0x5b, 0xa4, 0x3d, 0xee, 0x92, 0x4e, 0xbe, 0x37, 0xfe, 0xae, 0xbe, 0xf2, 0xf5, 0x50, 0x3e, 0x33, 0xf2, 0x27, 0xbe, 0xfe, 0xc2, 0x07, 0x3e, 0xca, 0xce, 0x73, 0x3e, 0x19, 0xfe, 0xb9, 0xbe, 0x13, 0xa6, 0xe1, 0x3d, 0xf1, 0xad, 0x9d, 0xbc, 0xda, 0x3f, 0x0a, 0xbe, 0x02, 0xe4, 0xff, 0x3d, 0x53, 0xbf, 0x26, 0xbe, 0x00, 0x8f, 0xa2, 0xbe, 0xdd, 0x89, 0x88, 0x3e, 0x9a, 0x38, 0xa1, 0x3b, 0xa4, 0x8c, 0x9a, 0xbe, 0x45, 0xe6, 0xa2, 0xbe, 0xef, 0xe3, 0x80, 0x3e, 0x42, 0xa2, 0x9e, 0x3d, 0x9e, 0x50, 0x87, 0xbe, 0xaf, 0xbe, 0xff, 0x3d, 0x4c, 0xad, 0x4b, 0x3e, 0x17, 0x09, 0x11, 0xbe, 0xe5, 0xbd, 0x90, 0x3e, 0xca, 0xc2, 0x54, 0xbe, 0xf2, 0x28, 0xa7, 0x3d, 0x6a, 0x5f, 0xdb, 0x3d, 0x68, 0xc2, 0x6c, 0x3e, 0x3a, 0xbb, 0x9e, 0x3d, 0x34, 0x9f, 0x73, 0xbe, 0xa6, 0xd5, 0x1a, 0xbe, 0x53, 0x7a, 0x86, 0x3a, 0x3d, 0x13, 0x32, 0x3d, 0x2a, 0x5f, 0xa6, 0xbd, 0x6a, 0x87, 0xc7, 0xbd, 0x65, 0x5f, 0x98, 0xbe, 0xcc, 0x01, 0x10, 0x3e, 0x99, 0x51, 0xea, 0x3d, 0x34, 0x19, 0x97, 0x3d, 0xe6, 0x25, 0xc7, 0xbd, 0x8e, 0x9a, 0x8f, 0x3c, 0x9b, 0xab, 0xb1, 0xbe, 0xde, 0x6a, 0x23, 0xbe, 0xee, 0x7c, 0x60, 0xbe, 0x71, 0x07, 0x58, 0xbe, 0xd7, 0x1b, 0x80, 0xbe, 0x72, 0x18, 0x9b, 0xbd, 0x8b, 0x1a, 0xfc, 0x3c, 0xf2, 0x40, 0x5a, 0x3e, 0xc9, 0x92, 0x5b, 0xbe, 0x3b, 0xb2, 0x2d, 0xbe, 0xd2, 0xdd, 0xaa, 0xbe, 0x13, 0x72, 0x31, 0x3e, 0x7c, 0x8e, 0x3e, 0xbc, 0x29, 0xb4, 0x21, 0xbe, 0x03, 0x3c, 0x47, 0x3d, 0xac, 0x50, 0x4b, 0xbd, 0x3f, 0x91, 0x0b, 0xbe, 0x3f, 0xfb, 0x9b, 0xbc, 0x15, 0x07, 0xb1, 0xbd, 0xa4, 0x1e, 0x73, 0xbd, 0x01, 0xfb, 0x04, 0xbe, 0xc9, 0xcd, 0x8f, 0xbe, 0x95, 0xfb, 0x38, 0xbe, 0x98, 0xef, 0x08, 0x3e, 0x2a, 0x9a, 0x8d, 0xbd, 0xd9, 0x24, 0xbc, 0xbd, 0x45, 0x9c, 0x3e, 0x3a, 0x3c, 0xc0, 0x8b, 0x3d, 0xf1, 0xbf, 0xa3, 0xbe, 0xaa, 0x20, 0x08, 0xbe, 0x75, 0xa2, 0x97, 0xbe, 0x2d, 0xce, 0x12, 0xbe, 0x92, 0x07, 0x5b, 0xbe, 0x10, 0x3b, 0xe5, 0xbd, 0x34, 0xb8, 0x8b, 0xbd, 0xee, 0x83, 0x63, 0xbe, 0xc9, 0x98, 0xfd, 0x3d, 0x24, 0xb4, 0x9f, 0x3e, 0x99, 0x3e, 0x93, 0xbe, 0xf0, 0x21, 0x37, 0xbd, 0x9f, 0xf1, 0x3c, 0x3e, 0xe4, 0x45, 0xa1, 0xbd, 0xe0, 0x2a, 0x95, 0xbe, 0xdc, 0xc6, 0x46, 0xbe, 0x08, 0x0b, 0xf5, 0xbc, 0xae, 0xea, 0x80, 0x3c, 0x55, 0xda, 0xa3, 0xbc, 0x28, 0xe8, 0x38, 0x3e, 0x49, 0x8c, 0x9a, 0xbd, 0xea, 0x2a, 0x45, 0xbe, 0xf3, 0x62, 0x3e, 0x3e, 0x0b, 0x98, 0x23, 0x3e, 0xf3, 0xda, 0x1c, 0xbd, 0x84, 0x95, 0x8a, 0xbe, 0xb4, 0xfe, 0xf7, 0xbc, 0x1e, 0x6c, 0x98, 0xbe, 0xb2, 0x46, 0xcf, 0x3d, 0xc3, 0xe5, 0xd3, 0xbd, 0x4e, 0xb5, 0xe6, 0x3d, 0x20, 0x58, 0x19, 0x3e, 0x58, 0x07, 0x4d, 0xbe, 0x19, 0x78, 0xb0, 0xbe, 0x83, 0xd4, 0x78, 0xbe, 0xda, 0x6d, 0x84, 0xbe, 0xd8, 0xfe, 0x5c, 0xbe, 0xd6, 0x33, 0xe2, 0xbd, 0x6a, 0x41, 0x0e, 0x3e, 0x22, 0x23, 0x01, 0xbe, 0x45, 0x18, 0xb7, 0xbd, 0x49, 0xd4, 0x9b, 0xbc, 0x21, 0xaf, 0x0d, 0x3e, 0x70, 0xae, 0x53, 0xbe, 0xb9, 0x6d, 0x29, 0x3e, 0x84, 0x08, 0x77, 0xbd, 0x57, 0xe1, 0x37, 0xbe, 0xc8, 0x05, 0xcb, 0xbd, 0xb2, 0x4f, 0x16, 0xbe, 0x15, 0x43, 0x7e, 0x3d, 0xc7, 0x75, 0x50, 0x3e, 0xc8, 0xc5, 0xe5, 0x3d, 0xe9, 0xce, 0x82, 0xbe, 0x8c, 0xc1, 0x0c, 0x3e, 0xb9, 0x7e, 0xab, 0xbe, 0x2e, 0x41, 0x73, 0xbe, 0x57, 0x2d, 0x8b, 0x3d, 0xed, 0xe3, 0x33, 0x3e, 0xeb, 0x27, 0x3b, 0xbd, 0xf2, 0x2a, 0x33, 0x3e, 0x97, 0xd2, 0x37, 0xbe, 0x2d, 0x4b, 0x69, 0xbe, 0x93, 0x9b, 0xd7, 0x3d, 0x7e, 0x51, 0x03, 0xbe, 0x12, 0x80, 0xb7, 0xbd, 0xfb, 0xbc, 0x48, 0x3d, 0xae, 0xc8, 0x62, 0xbd, 0x82, 0x32, 0x92, 0xbe, 0x05, 0xc8, 0x14, 0x3e, 0xee, 0xb1, 0x47, 0x3e, 0xc2, 0x23, 0xc0, 0x3d, 0xc7, 0xf2, 0x3f, 0xbe, 0x56, 0xca, 0x39, 0xbe, 0xa2, 0xba, 0x55, 0xbe, 0x1d, 0xd5, 0x06, 0xbd, 0xa0, 0xd4, 0x51, 0x3e, 0x8d, 0xcb, 0x46, 0x3e, 0xb6, 0xfc, 0x82, 0xbe, 0x0a, 0x0e, 0x8a, 0xbe, 0xea, 0x53, 0xf0, 0xbd, 0x9e, 0x6d, 0x00, 0xbe, 0xba, 0x44, 0x48, 0xbe, 0x73, 0xda, 0xc1, 0xbc, 0x77, 0x50, 0x7d, 0xbe, 0x88, 0x5e, 0x9a, 0xbb, 0xe1, 0x63, 0x40, 0xbd, 0x3f, 0x28, 0x91, 0xbe, 0x22, 0xfe, 0xff, 0xff, 0x10, 0x00, 0x00, 0x00, 0x05, 0x00, 0x00, 0x00, 0x14, 0x00, 0x00, 0x00, 0x2c, 0x00, 0x00, 0x00, 0x02, 0x00, 0x00, 0x00, 0x20, 0x00, 0x00, 0x00, 0x20, 0x00, 0x00, 0x00, 0x17, 0x00, 0x00, 0x00, 0x73, 0x65, 0x71, 0x75, 0x65, 0x6e, 0x74, 0x69, 0x61, 0x6c, 0x2f, 0x64, 0x65, 0x6e, 0x73, 0x65, 0x2f, 0x4d, 0x61, 0x74, 0x4d, 0x75, 0x6c, 0x00, 0xa0, 0xfd, 0xff, 0xff, 0xf6, 0xfe, 0xff, 0xff, 0x04, 0x00, 0x00, 0x00, 0x0c, 0x00, 0x00, 0x00, 0xf0, 0x5d, 0xd2, 0x3e, 0xdc, 0x5e, 0xe9, 0x3f, 0xdf, 0x73, 0x96, 0xc0, 0x7a, 0xfe, 0xff, 0xff, 0x10, 0x00, 0x00, 0x00, 0x04, 0x00, 0x00, 0x00, 0x10, 0x00, 0x00, 0x00, 0x44, 0x00, 0x00, 0x00, 0x01, 0x00, 0x00, 0x00, 0x03, 0x00, 0x00, 0x00, 0x32, 0x00, 0x00, 0x00, 0x73, 0x65, 0x71, 0x75, 0x65, 0x6e, 0x74, 0x69, 0x61, 0x6c, 0x2f, 0x64, 0x65, 0x6e, 0x73, 0x65, 0x5f, 0x32, 0x2f, 0x42, 0x69, 0x61, 0x73, 0x41, 0x64, 0x64, 0x2f, 0x52, 0x65, 0x61, 0x64, 0x56, 0x61, 0x72, 0x69, 0x61, 0x62, 0x6c, 0x65, 0x4f, 0x70, 0x2f, 0x72, 0x65, 0x73, 0x6f, 0x75, 0x72, 0x63, 0x65, 0x00, 0x00, 0x10, 0xfe, 0xff, 0xff, 0x66, 0xff, 0xff, 0xff, 0x04, 0x00, 0x00, 0x00, 0x30, 0x00, 0x00, 0x00, 0xe2, 0x24, 0x0b, 0xbf, 0xdb, 0x75, 0x87, 0xbb, 0x1d, 0x0e, 0x4d, 0xbf, 0x93, 0xde, 0xbc, 0x3c, 0x26, 0xab, 0x2f, 0xbd, 0x37, 0x39, 0x60, 0xbf, 0xc5, 0x4e, 0x0e, 0xbf, 0x6d, 0xc0, 0xe5, 0xbe, 0xab, 0xa6, 0x36, 0xbf, 0x36, 0x1f, 0x30, 0xbb, 0x78, 0xc3, 0x3e, 0xbd, 0x22, 0xb0, 0x4d, 0xbb, 0x0e, 0xff, 0xff, 0xff, 0x10, 0x00, 0x00, 0x00, 0x03, 0x00, 0x00, 0x00, 0x10, 0x00, 0x00, 0x00, 0x48, 0x00, 0x00, 0x00, 0x01, 0x00, 0x00, 0x00, 0x0c, 0x00, 0x00, 0x00, 0x32, 0x00, 0x00, 0x00, 0x73, 0x65, 0x71, 0x75, 0x65, 0x6e, 0x74, 0x69, 0x61, 0x6c, 0x2f, 0x64, 0x65, 0x6e, 0x73, 0x65, 0x5f, 0x31, 0x2f, 0x42, 0x69, 0x61, 0x73, 0x41, 0x64, 0x64, 0x2f, 0x52, 0x65, 0x61, 0x64, 0x56, 0x61, 0x72, 0x69, 0x61, 0x62, 0x6c, 0x65, 0x4f, 0x70, 0x2f, 0x72, 0x65, 0x73, 0x6f, 0x75, 0x72, 0x63, 0x65, 0x00, 0x00, 0x04, 0x00, 0x06, 0x00, 0x04, 0x00, 0x00, 0x00, 0x00, 0x00, 0x06, 0x00, 0x08, 0x00, 0x04, 0x00, 0x06, 0x00, 0x00, 0x00, 0x04, 0x00, 0x00, 0x00, 0x80, 0x00, 0x00, 0x00, 0x77, 0xfc, 0xf1, 0xbd, 0x7f, 0x04, 0xfa, 0xbc, 0x19, 0x64, 0x04, 0xbc, 0x5e, 0x77, 0xe9, 0xbd, 0x2d, 0x8e, 0xbe, 0xbd, 0x58, 0x54, 0xda, 0xbd, 0x93, 0x7c, 0xd2, 0xbd, 0xbf, 0x48, 0x05, 0xbe, 0xfe, 0xb5, 0xd9, 0xbc, 0x89, 0x30, 0x49, 0xbd, 0x0f, 0x64, 0xc1, 0xbd, 0xea, 0x34, 0xa4, 0xbc, 0xfe, 0x41, 0x51, 0xbd, 0x52, 0xcc, 0x5f, 0xbd, 0xb8, 0xd8, 0xd6, 0xbd, 0x59, 0xbe, 0xb2, 0xbd, 0xda, 0x6d, 0x4b, 0x3e, 0xbe, 0x47, 0x75, 0xbd, 0xcb, 0xa4, 0xb0, 0xbd, 0x17, 0xd3, 0x14, 0xbd, 0x2d, 0xa1, 0x19, 0xbd, 0xe9, 0x93, 0x76, 0xbd, 0x00, 0x00, 0x00, 0x00, 0x3f, 0x53, 0x8b, 0xbd, 0xd4, 0x03, 0xd0, 0x3e, 0x89, 0x1c, 0x2e, 0xbd, 0x09, 0x09, 0xfc, 0xbd, 0x0a, 0x19, 0xcd, 0xbd, 0xde, 0x95, 0x01, 0xbe, 0x9a, 0xa4, 0x74, 0xbc, 0x7a, 0x3d, 0x9c, 0xbd, 0x70, 0x87, 0x9d, 0xbd, 0x00, 0x00, 0x0e, 0x00, 0x14, 0x00, 0x04, 0x00, 0x00, 0x00, 0x08, 0x00, 0x0c, 0x00, 0x10, 0x00, 0x0e, 0x00, 0x00, 0x00, 0x10, 0x00, 0x00, 0x00, 0x02, 0x00, 0x00, 0x00, 0x10, 0x00, 0x00, 0x00, 0x44, 0x00, 0x00, 0x00, 0x01, 0x00, 0x00, 0x00, 0x20, 0x00, 0x00, 0x00, 0x30, 0x00, 0x00, 0x00, 0x73, 0x65, 0x71, 0x75, 0x65, 0x6e, 0x74, 0x69, 0x61, 0x6c, 0x2f, 0x64, 0x65, 0x6e, 0x73, 0x65, 0x2f, 0x42, 0x69, 0x61, 0x73, 0x41, 0x64, 0x64, 0x2f, 0x52, 0x65, 0x61, 0x64, 0x56, 0x61, 0x72, 0x69, 0x61, 0x62, 0x6c, 0x65, 0x4f, 0x70, 0x2f, 0x72, 0x65, 0x73, 0x6f, 0x75, 0x72, 0x63, 0x65, 0x00, 0x00, 0x00, 0x00, 0xa4, 0xff, 0xff, 0xff, 0x14, 0x00, 0x18, 0x00, 0x04, 0x00, 0x00, 0x00, 0x08, 0x00, 0x0c, 0x00, 0x10, 0x00, 0x00, 0x00, 0x00, 0x00, 0x14, 0x00, 0x14, 0x00, 0x00, 0x00, 0x14, 0x00, 0x00, 0x00, 0x01, 0x00, 0x00, 0x00, 0x24, 0x00, 0x00, 0x00, 0x30, 0x00, 0x00, 0x00, 0x10, 0x00, 0x00, 0x00, 0x02, 0x00, 0x00, 0x00, 0x01, 0x00, 0x00, 0x00, 0x20, 0x00, 0x00, 0x00, 0x02, 0x00, 0x00, 0x00, 0xff, 0xff, 0xff, 0xff, 0x20, 0x00, 0x00, 0x00, 0x0b, 0x00, 0x00, 0x00, 0x64, 0x65, 0x6e, 0x73, 0x65, 0x5f, 0x69, 0x6e, 0x70, 0x75, 0x74, 0x00, 0xfc, 0xff, 0xff, 0xff, 0x04, 0x00, 0x04, 0x00, 0x04, 0x00, 0x00, 0x00};
const int model_data_len = 7644;